{
  "version": "1.0",
  "truncation": null,
  "padding": null,
  "added_tokens": [
    {
      "id": 0,
      "special": true,
      "content": "[UNK]",
      "single_word": false,
      "lstrip": false,
      "rstrip": false,
      "normalized": false
    },
    {
      "id": 1,
      "special": true,
      "content": "[CLS]",
      "single_word": false,
      "lstrip": false,
      "rstrip": false,
      "normalized": false
    },
    {
      "id": 2,
      "special": true,
      "content": "[SEP]",
      "single_word": false,
      "lstrip": false,
      "rstrip": false,
      "normalized": false
    },
    {
      "id": 3,
      "special": true,
      "content": "[PAD]",
      "single_word": false,
      "lstrip": false,
      "rstrip": false,
      "normalized": false
    },
    {
      "id": 4,
      "special": true,
      "content": "[MASK]",
      "single_word": false,
      "lstrip": false,
      "rstrip": false,
      "normalized": false
    }
  ],
  "normalizer": null,
  "pre_tokenizer": null,
  "post_processor": null,
  "decoder": null,
  "model": {
    "type": "WordPiece",
    "unk_token": "[UNK]",
    "continuing_subword_prefix": "##",
    "max_input_chars_per_word": 100,
    "vocab": {
      "[UNK]": 0,
      "[CLS]": 1,
      "[SEP]": 2,
      "[PAD]": 3,
      "[MASK]": 4,
      "\n": 5,
      " ": 6,
      "!": 7,
      "\"": 8,
      "#": 9,
      "%": 10,
      "&": 11,
      "'": 12,
      "(": 13,
      ")": 14,
      "*": 15,
      ",": 16,
      "-": 17,
      ".": 18,
      "/": 19,
      "0": 20,
      "1": 21,
      "2": 22,
      "3": 23,
      "4": 24,
      "5": 25,
      "6": 26,
      "7": 27,
      "8": 28,
      "9": 29,
      ":": 30,
      ";": 31,
      "<": 32,
      "=": 33,
      ">": 34,
      "?": 35,
      "@": 36,
      "A": 37,
      "B": 38,
      "C": 39,
      "D": 40,
      "E": 41,
      "F": 42,
      "G": 43,
      "H": 44,
      "I": 45,
      "J": 46,
      "K": 47,
      "L": 48,
      "M": 49,
      "N": 50,
      "O": 51,
      "P": 52,
      "Q": 53,
      "R": 54,
      "S": 55,
      "T": 56,
      "U": 57,
      "V": 58,
      "W": 59,
      "X": 60,
      "Y": 61,
      "Z": 62,
      "[": 63,
      "]": 64,
      "_": 65,
      "`": 66,
      "a": 67,
      "b": 68,
      "c": 69,
      "d": 70,
      "e": 71,
      "f": 72,
      "g": 73,
      "h": 74,
      "i": 75,
      "j": 76,
      "k": 77,
      "l": 78,
      "m": 79,
      "n": 80,
      "o": 81,
      "p": 82,
      "q": 83,
      "r": 84,
      "s": 85,
      "t": 86,
      "u": 87,
      "v": 88,
      "w": 89,
      "x": 90,
      "y": 91,
      "z": 92,
      "|": 93,
      "}": 94,
      "~": 95,
      "## ": 96,
      "##T": 97,
      "##h": 98,
      "##e": 99,
      "##i": 100,
      "##r": 101,
      "##m": 102,
      "##d": 103,
      "##c": 104,
      "##n": 105,
      "##a": 106,
      "##l": 107,
      "##g": 108,
      "##u": 109,
      "##.": 110,
      "##S": 111,
      "##t": 112,
      "##y": 113,
      "##o": 114,
      "##w": 115,
      "##s": 116,
      "##;": 117,
      "##\n": 118,
      "##G": 119,
      "##A": 120,
      "##,": 121,
      "##p": 122,
      "##x": 123,
      "##k": 124,
      "##?": 125,
      "##I": 126,
      "##f": 127,
      "##K": 128,
      "##N": 129,
      "##b": 130,
      "##C": 131,
      "##B": 132,
      "##D": 133,
      "##Y": 134,
      "##-": 135,
      "##R": 136,
      "##F": 137,
      "##O": 138,
      "##!": 139,
      "##v": 140,
      "##M": 141,
      "##U": 142,
      "##W": 143,
      "##L": 144,
      "##'": 145,
      "##E": 146,
      "##H": 147,
      "##V": 148,
      "##J": 149,
      "##P": 150,
      "##q": 151,
      "##[": 152,
      "##]": 153,
      "##Q": 154,
      "##z": 155,
      "##:": 156,
      "##Z": 157,
      "##X": 158,
      "##j": 159,
      "##6": 160,
      "##0": 161,
      "##9": 162,
      "##(": 163,
      "##2": 164,
      "##)": 165,
      "##_": 166,
      "##5": 167,
      "##|": 168,
      "##1": 169,
      "##\"": 170,
      "##@": 171,
      "##8": 172,
      "##3": 173,
      "##4": 174,
      "##7": 175,
      "##&": 176,
      "##>": 177,
      "##<": 178,
      "##/": 179,
      "##*": 180,
      "##~": 181,
      "##=": 182,
      "##`": 183,
      "##}": 184,
      "##%": 185,
      "###": 186,
      "##  ": 187,
      "##e ": 188,
      "##th": 189,
      "   ": 190,
      "##t ": 191,
      "    ": 192,
      "##s ": 193,
      "##, ": 194,
      "##d ": 195,
      "##    ": 196,
      "##ou": 197,
      "##er": 198,
      "##in": 199,
      "##an": 200,
      "##y ": 201,
      "##. ": 202,
      "##or": 203,
      "  ": 204,
      "##o ": 205,
      "##en": 206,
      "##.\n": 207,
      "##ar": 208,
      "##ll": 209,
      "##on": 210,
      "## th": 211,
      "##ha": 212,
      "##        ": 213,
      "##is ": 214,
      "##es": 215,
      "##,\n": 216,
      "##you": 217,
      "##and ": 218,
      "##I ": 219,
      "##of": 220,
      "##ea": 221,
      "##ll ": 222,
      "##to ": 223,
      "##ow": 224,
      "##wi": 225,
      "##er ": 226,
      "##ing": 227,
      "##om": 228,
      "##r ": 229,
      "##st": 230,
      "## m": 231,
      "##the ": 232,
      "##ch": 233,
      "## h": 234,
      "##no": 235,
      "##ve ": 236,
      "##se": 237,
      "    T": 238,
      "##for": 239,
      "##a ": 240,
      "##re": 241,
      "## the ": 242,
      "##li": 243,
      "##at ": 244,
      "##e, ": 245,
      "##of ": 246,
      "    A": 247,
      "##he ": 248,
      "##hi": 249,
      "##th ": 250,
      "##oo": 251,
      "##ri": 252,
      "##at": 253,
      "##ear": 254,
      "##gh": 255,
      "##; ": 256,
      "##st ": 257,
      "##le": 258,
      "##it": 259,
      "##nd ": 260,
      "##ra": 261,
      "##                ": 262,
      "##not ": 263,
      "##you ": 264,
      "##?\n": 265,
      "##ing ": 266,
      "##is": 267,
      "##my ": 268,
      "##ee": 269,
      "##'s ": 270,
      "##am": 271,
      "##ld ": 272,
      "##un": 273,
      "##;\n": 274,
      "##in ": 275,
      "##ut ": 276,
      "##hat ": 277,
      "##as ": 278,
      "##be": 279,
      "##en ": 280,
      "##al": 281,
      "##si": 282,
      "##ER": 283,
      "##es ": 284,
      "##it ": 285,
      "##'d ": 286,
      "##ur": 287,
      "##la": 288,
      "##be ": 289,
      "##your ": 290,
      "    W": 291,
      "##ou ": 292,
      "##ro": 293,
      "##ere ": 294,
      "##ke ": 295,
      "##ma": 296,
      "##ti": 297,
      "##, and ": 298,
      "##the": 299,
      "    And ": 300,
      "##ce": 301,
      "##AN": 302,
      "##sh": 303,
      "##an ": 304,
      "##S. ": 305,
      "##IN": 306,
      "##  \n": 307,
      "##EN": 308,
      "##have ": 309,
      "##lo": 310,
      "##ent": 311,
      "##ch ": 312,
      "##com": 313,
      "##that ": 314,
      "##k ": 315,
      "##AR": 316,
      "##di": 317,
      "##y, ": 318,
      "##ow ": 319,
      "##se ": 320,
      "##ce ": 321,
      "##fa": 322,
      "##d, ": 323,
      "##OR": 324,
      "##m ": 325,
      "##his ": 326,
      "##s, ": 327,
      "##ON": 328,
      "##on ": 329,
      "##me ": 330,
      "##or ": 331,
      "##de": 332,
      "##!\n": 333,
      "##f ": 334,
      "##rea": 335,
      "##our ": 336,
      "##. T": 337,
      "##sha": 338,
      "##wh": 339,
      "##ould ": 340,
      "##sa": 341,
      "##su": 342,
      "##ther": 343,
      "##e\n": 344,
      "##le ": 345,
      "##. W": 346,
      "##will ": 347,
      "##sp": 348,
      "##ir": 349,
      "##with": 350,
      "##with ": 351,
      "##ed ": 352,
      "##ST": 353,
      "##n ": 354,
      "##e.\n": 355,
      "##ru": 356,
      "##el": 357,
      "##wor": 358,
      "##ta": 359,
      "## my ": 360,
      "##t, ": 361,
      "##are ": 362,
      "##E ": 363,
      "##ver": 364,
      "##ol": 365,
      "##but ": 366,
      "##ter": 367,
      "##and": 368,
      "##! ": 369,
      "## the": 370,
      "##ir ": 371,
      "##ter ": 372,
      "##ck": 373,
      "    B": 374,
      "  C": 375,
      "##US. ": 376,
      "##kn": 377,
      "##ell": 378,
      "    I": 379,
      "##for ": 380,
      "##. A": 381,
      "##igh": 382,
      "##wa": 383,
      "##et ": 384,
      "##ly ": 385,
      "##ood ": 386,
      "##ES": 387,
      "##s\n": 388,
      "##rom": 389,
      "##TH": 390,
      "##con": 391,
      "##up": 392,
      "##il": 393,
      "##do": 394,
      "##so ": 395,
      "    S": 396,
      "    H": 397,
      "##shall ": 398,
      "  P": 399,
      "##D ": 400,
      "##our": 401,
      "##. I ": 402,
      "##do ": 403,
      "##by ": 404,
      "##res": 405,
      "##AL": 406,
      "##me": 407,
      "##lor": 408,
      "##sel": 409,
      "##ne": 410,
      "##? ": 411,
      "    Th": 412,
      "     ": 413,
      "##d.\n": 414,
      "##s.\n": 415,
      "##all": 416,
      "##to": 417,
      "##ag": 418,
      "## his ": 419,
      "##ough": 420,
      "##OL": 421,
      "##d\n": 422,
      "##t\n": 423,
      "##thou ": 424,
      "    O": 425,
      "##ther ": 426,
      "##po": 427,
      "##ain": 428,
      "##mor": 429,
      "                   ": 430,
      "    To ": 431,
      "##we ": 432,
      "## that ": 433,
      "##EL": 434,
      "  S": 435,
      "##e,\n": 436,
      "##im": 437,
      "##qu": 438,
      "##this ": 439,
      "##all ": 440,
      "##no ": 441,
      "##her": 442,
      "##mu": 443,
      "##'ll ": 444,
      "##. H": 445,
      "  B": 446,
      "##s,\n": 447,
      "##from": 448,
      "##ong": 449,
      "##oun": 450,
      "##bl": 451,
      "    The ": 452,
      "##te": 453,
      "## this ": 454,
      "##' ": 455,
      "##bo": 456,
      "##. S": 457,
      "##mo": 458,
      "    F": 459,
      "##hear": 460,
      "##. I": 461,
      "    I ": 462,
      "##thy ": 463,
      "##whi": 464,
      "##RO": 465,
      "    That ": 466,
      "##Ex": 467,
      "##end": 468,
      "##lea": 469,
      "##CH": 470,
      "##one ": 471,
      "##us ": 472,
      "##t.\n": 473,
      "##y.\n": 474,
      "##est ": 475,
      "##ul": 476,
      "##man": 477,
      "##S ": 478,
      "##vi": 479,
      "##ent ": 480,
      "##what ": 481,
      "##En": 482,
      "##TI": 483,
      "    M": 484,
      "##was ": 485,
      "##so": 486,
      "##as": 487,
      "##good ": 488,
      "##ran": 489,
      "##y\n": 490,
      "##ess ": 491,
      "##da": 492,
      "##us": 493,
      "##ap": 494,
      "##would ": 495,
      "##d,\n": 496,
      "  F": 497,
      "##ho": 498,
      "##gi": 499,
      "##fi": 500,
      "##LO": 501,
      "##him": 502,
      "##am ": 503,
      "##ec": 504,
      "##LE": 505,
      "  M": 506,
      "##sir": 507,
      "##ome ": 508,
      "##sw": 509,
      "##      ": 510,
      "##par": 511,
      "##ver ": 512,
      "##ad": 513,
      "##RI": 514,
      "##ING": 515,
      "##. N": 516,
      "##per": 517,
      "##et": 518,
      "##row": 519,
      "##him ": 520,
      "##tru": 521,
      "##IC": 522,
      "##ous ": 523,
      "##. B": 524,
      "##ds ": 525,
      "##IA": 526,
      "##go": 527,
      "##lov": 528,
      "## thy ": 529,
      "##ine ": 530,
      "##pro": 531,
      "  K": 532,
      "##OF": 533,
      "##out ": 534,
      "##like ": 535,
      "##. M": 536,
      "##IO": 537,
      "##her ": 538,
      "##ts ": 539,
      "##we": 540,
      "##she ": 541,
      "##ati": 542,
      "##dea": 543,
      "##ci": 544,
      "##e's ": 545,
      "##in the ": 546,
      "  L": 547,
      "##war": 548,
      "##-\n": 549,
      "##; and ": 550,
      "##to the ": 551,
      "##. O": 552,
      "##know": 553,
      "##ab": 554,
      "  H": 555,
      "##ey": 556,
      "##ear ": 557,
      "##p ": 558,
      "##ac": 559,
      "  A": 560,
      "##OF ": 561,
      "##hea": 562,
      "##.  \n": 563,
      "## he ": 564,
      "##son": 565,
      "    But ": 566,
      "##. Th": 567,
      "    Wh": 568,
      "##ut": 569,
      "##T ": 570,
      "##dis": 571,
      "##est": 572,
      "##'t": 573,
      "##oul": 574,
      "##IL": 575,
      "##ven": 576,
      "##em": 577,
      "##, I ": 578,
      "##um": 579,
      "##de ": 580,
      "##were ": 581,
      "##OR ": 582,
      "##of the ": 583,
      "##pla": 584,
      "           ": 585,
      "##TE": 586,
      "##let ": 587,
      "## him": 588,
      "##should ": 589,
      "##. Y": 590,
      "  D": 591,
      "##ex": 592,
      "##US": 593,
      "##IR": 594,
      "    Y": 595,
      "##ang": 596,
      "##now": 597,
      "##hath ": 598,
      "##well": 599,
      "##ill": 600,
      "##come ": 601,
      "##can": 602,
      "##end ": 603,
      "##UC": 604,
      "##ca": 605,
      "##o, ": 606,
      "##EC": 607,
      "  G": 608,
      "##ble ": 609,
      "##es, ": 610,
      "##did ": 611,
      "##self": 612,
      "##Enter ": 613,
      "##very ": 614,
      "##fore ": 615,
      "##al ": 616,
      "##der": 617,
      "##CO": 618,
      "##ese ": 619,
      "##thee ": 620,
      "##rin": 621,
      "##a m": 622,
      "##y,\n": 623,
      "##make ": 624,
      "    N": 625,
      "##my lor": 626,
      "##spea": 627,
      "##more ": 628,
      "##id ": 629,
      "##t,\n": 630,
      "##had ": 631,
      "##- ": 632,
      "    L": 633,
      "##Th": 634,
      "##TR": 635,
      "    C": 636,
      "##ill ": 637,
      "##they ": 638,
      "##ce, ": 639,
      "##ge ": 640,
      "##ERS": 641,
      "##ster": 642,
      "  KING": 643,
      "##fri": 644,
      "##Y ": 645,
      "##if ": 646,
      "##ure ": 647,
      "##love ": 648,
      "##ry ": 649,
      "##tt": 650,
      "##you, ": 651,
      "##. Wh": 652,
      "##op": 653,
      "##. G": 654,
      "##ff": 655,
      "##IUS. ": 656,
      "    As ": 657,
      "##des": 658,
      "##pra": 659,
      "##ind": 660,
      "##ay ": 661,
      "##gu": 662,
      "##such ": 663,
      "##ind ": 664,
      "##some ": 665,
      "##grea": 666,
      "##hon": 667,
      "##ed": 668,
      "##loo": 669,
      "##ful": 670,
      "##ess": 671,
      "##ANT": 672,
      "##ight ": 673,
      "##eun": 674,
      "##pri": 675,
      "## thou ": 676,
      "##again": 677,
      "## me ": 678,
      "##ARD": 679,
      "## her ": 680,
      "##. The ": 681,
      "##which ": 682,
      "##Exeun": 683,
      "##'d": 684,
      "##sc": 685,
      "    D": 686,
      "##ugh": 687,
      "##own": 688,
      "##I'll ": 689,
      "##see ": 690,
      "##ser": 691,
      "##upon": 692,
      "##. C": 693,
      "##co": 694,
      "##ame ": 695,
      "##give ": 696,
      "##gra": 697,
      "##bro": 698,
      "##say ": 699,
      "##IS": 700,
      "##take ": 701,
      "##ous": 702,
      "##ith": 703,
      "##lif": 704,
      "## their ": 705,
      "##eet ": 706,
      "##ba": 707,
      "##ED": 708,
      "##e?\n": 709,
      "##:\n": 710,
      "##may ": 711,
      "##if": 712,
      "##gent": 713,
      "##. F": 714,
      "##tion": 715,
      "##,  \n": 716,
      "##ES ": 717,
      "##ven ": 718,
      "##must ": 719,
      "##ink": 720,
      "##own ": 721,
      "## and ": 722,
      "##I have ": 723,
      "##EM": 724,
      "##ence": 725,
      "##.                ": 726,
      "##ck ": 727,
      "##fl": 728,
      "##hat": 729,
      "##any ": 730,
      "##ish": 731,
      "##yet ": 732,
      "##fo": 733,
      "##bet": 734,
      "##their ": 735,
      "##foo": 736,
      "##'T": 737,
      "    For ": 738,
      "##from ": 739,
      "##tw": 740,
      "##now ": 741,
      "                                   ": 742,
      "##en, ": 743,
      "    Whi": 744,
      "##ose ": 745,
      "##ge": 746,
      "##pres": 747,
      "##ves ": 748,
      "##mar": 749,
      "##'st ": 750,
      "##id": 751,
      "  W": 752,
      "##.  ": 753,
      "##BU": 754,
      "##ere": 755,
      "##INC": 756,
      "##go ": 757,
      "##I am ": 758,
      "##ate ": 759,
      "##ence ": 760,
      "##IST": 761,
      "##though": 762,
      "##e, and ": 763,
      "##pa": 764,
      "##brea": 765,
      "##. L": 766,
      "##es\n": 767,
      "##plea": 768,
      "##can ": 769,
      "##ig": 770,
      "##don": 771,
      "##off": 772,
      "##     ": 773,
      "##most ": 774,
      "##coun": 775,
      "##self ": 776,
      "##ted ": 777,
      "##       ": 778,
      "##l ": 779,
      "##dy ": 780,
      "##arm": 781,
      "##PH": 782,
      "##. What ": 783,
      "##well ": 784,
      "  KING ": 785,
      "##king": 786,
      "##ve": 787,
      "##your": 788,
      "  T": 789,
      "##never ": 790,
      "##ith ": 791,
      "##]\n": 792,
      "##Go": 793,
      "##s of ": 794,
      "##will": 795,
      "##shi": 796,
      "##pre": 797,
      "##thou": 798,
      "##of m": 799,
      "##urn": 800,
      "##s and ": 801,
      "##MA": 802,
      "##br": 803,
      "##ant ": 804,
      "## hi": 805,
      "##ave ": 806,
      "##AND": 807,
      "##es.\n": 808,
      "##awa": 809,
      "##FF": 810,
      "##use ": 811,
      "##bu": 812,
      "##pea": 813,
      "##art ": 814,
      "##tu": 815,
      "##mp": 816,
      "##pp": 817,
      "##w ": 818,
      "##ber": 819,
      "##I will ": 820,
      "##father": 821,
      "##AM": 822,
      "##tim": 823,
      "##comm": 824,
      "##other ": 825,
      "##ight": 826,
      "##here ": 827,
      "##fir": 828,
      "##ey ": 829,
      "##ore ": 830,
      "##ome": 831,
      "##es,\n": 832,
      "##it.\n": 833,
      "##great ": 834,
      "##sir, ": 835,
      "##eep": 836,
      "##wom": 837,
      "##ET": 838,
      "##ORD": 839,
      "    P": 840,
      "##to be ": 841,
      "##af": 842,
      "##'tis ": 843,
      "##mi": 844,
      "##o'": 845,
      "##bea": 846,
      "##iti": 847,
      "##ome, ": 848,
      "##. And ": 849,
      "##bra": 850,
      "##hand": 851,
      "##thing ": 852,
      "##. P": 853,
      "##friend": 854,
      "##cour": 855,
      "##too ": 856,
      "##ju": 857,
      "##   ": 858,
      "##tri": 859,
      "## her": 860,
      "##CI": 861,
      "##know ": 862,
      "##ep": 863,
      "##UT": 864,
      "##QU": 865,
      "##; but ": 866,
      "##ful ": 867,
      "##tun": 868,
      "##ay, ": 869,
      "##tra": 870,
      "##char": 871,
      "##AB": 872,
      "##WN": 873,
      "##thing": 874,
      "##OTH": 875,
      "##rong": 876,
      "##cl": 877,
      "##too": 878,
      "##when ": 879,
      "##RIBU": 880,
      "##swor": 881,
      "##IS ": 882,
      "##AND ": 883,
      "##BY ": 884,
      "##bear": 885,
      "##. My ": 886,
      "##them ": 887,
      "    My ": 888,
      "##King": 889,
      "    A ": 890,
      "##ARE ": 891,
      "##An": 892,
      "##FOR ": 893,
      "##orn": 894,
      "##s, and ": 895,
      "##cha": 896,
      "##TED ": 897,
      "##it\n": 898,
      "## him ": 899,
      "##COP": 900,
      "##ISTRIBU": 901,
      "##ble": 902,
      "##ID": 903,
      "##ie": 904,
      "##ere is ": 905,
      "##LY": 906,
      "##CEN": 907,
      "##ound ": 908,
      "##man ": 909,
      "##] ": 910,
      "##cannot ": 911,
      "##du": 912,
      "##old ": 913,
      "##fu": 914,
      "##ph": 915,
      "##s to ": 916,
      "##long": 917,
      "##UR": 918,
      "##bloo": 919,
      "##. D": 920,
      "##time ": 921,
      "##ink ": 922,
      "##llow": 923,
      "##of my ": 924,
      "## they ": 925,
      "##death": 926,
      "##'Tis ": 927,
      "##let": 928,
      "##comp": 929,
      "  CA": 930,
      "##e;\n": 931,
      "##ST ": 932,
      "##Re": 933,
      "##wif": 934,
      "##not": 935,
      "##doth ": 936,
      "    U": 937,
      "##land": 938,
      "##ster ": 939,
      "##ar ": 940,
      "##rie": 941,
      "##ation": 942,
      "##that": 943,
      "##CENE ": 944,
      "##other": 945,
      "##O ": 946,
      "##IRST ": 947,
      "En": 948,
      "##ant": 949,
      "##ard": 950,
      "##tain": 951,
      "##tell ": 952,
      "##cu": 953,
      "##ake ": 954,
      "##om ": 955,
      "##Lor": 956,
      "##OM": 957,
      "##ever ": 958,
      "##speak": 959,
      "##UCH": 960,
      "  FIRST ": 961,
      "##lie": 962,
      "##jo": 963,
      "##EST": 964,
      "##min": 965,
      "##less ": 966,
      "##ty ": 967,
      "##ers ": 968,
      "##fear": 969,
      "##E\n": 970,
      "##ance ": 971,
      "##ligh": 972,
      "    G": 973,
      "##them": 974,
      "##re ": 975,
      "##ren": 976,
      "##ost ": 977,
      "##lord": 978,
      "## th' ": 979,
      "##pur": 980,
      "##and, ": 981,
      "## mu": 982,
      "##men": 983,
      "##tor": 984,
      "##ded ": 985,
      "##car": 986,
      "##Du": 987,
      "##ce\n": 988,
      "##ot ": 989,
      "##me, ": 990,
      "##der ": 991,
      "##s;\n": 992,
      "##: ": 993,
      "##speak ": 994,
      "##dam": 995,
      "##soul": 996,
      "##Wh": 997,
      "##'d\n": 998,
      "##thee": 999,
      "##sweet ": 1000,
      "##kes ": 1001,
      "##ION": 1002,
      "##sin": 1003,
      "##MER": 1004,
      "##hat, ": 1005,
      "##. But ": 1006,
      "##ys ": 1007,
      "## thee ": 1008,
      "##vo": 1009,
      "##red ": 1010,
      "##Ca": 1011,
      "##ERV": 1012,
      "##ive ": 1013,
      "##IAN": 1014,
      "##UK": 1015,
      "##noble ": 1016,
      "##fair ": 1017,
      "##is the ": 1018,
      "##ILL": 1019,
      "##ew": 1020,
      "##mon": 1021,
      "##you.\n": 1022,
      "##ness ": 1023,
      "##where ": 1024,
      "    With ": 1025,
      "##pos": 1026,
      "##ment": 1027,
      "##sea": 1028,
      "##ret": 1029,
      "##much ": 1030,
      "##S OF ": 1031,
      "##pr": 1032,
      "##then ": 1033,
      "##ce.\n": 1034,
      "##dg": 1035,
      "##two ": 1036,
      "    He ": 1037,
      "##with the ": 1038,
      "##righ": 1039,
      "##lad": 1040,
      "##. He ": 1041,
      "##than ": 1042,
      "##HI": 1043,
      "##. You ": 1044,
      "##gentle": 1045,
      "##comes ": 1046,
      "##) ": 1047,
      "    Which ": 1048,
      "Enter ": 1049,
      "##e; ": 1050,
      "##Ma": 1051,
      "##'t ": 1052,
      "##of th": 1053,
      "## hea": 1054,
      "    This ": 1055,
      "##BER": 1056,
      "##son ": 1057,
      "##eed ": 1058,
      "    Of ": 1059,
      "    For": 1060,
      "##se\n": 1061,
      "##and\n": 1062,
      "##rown": 1063,
      "##lt ": 1064,
      "##King ": 1065,
      "##, the ": 1066,
      "    In ": 1067,
      "##see": 1068,
      "    If ": 1069,
      "##goo": 1070,
      "##LA": 1071,
      "##when": 1072,
      "##could ": 1073,
      "##mer": 1074,
      "##g ": 1075,
      "##PE": 1076,
      "##on the ": 1077,
      "    What ": 1078,
      "## OF ": 1079,
      "## them": 1080,
      "##in my ": 1081,
      "##liv": 1082,
      "##tion ": 1083,
      "##spi": 1084,
      "##PA": 1085,
      "##PRO": 1086,
      "##then": 1087,
      "##been ": 1088,
      "##all the ": 1089,
      "##ongu": 1090,
      "##cur": 1091,
      "##of his ": 1092,
      "##it is ": 1093,
      "##ough ": 1094,
      "##lou": 1095,
      "##here": 1096,
      "##tr": 1097,
      "##ten": 1098,
      "## than": 1099,
      "##ard ": 1100,
      "##nat": 1101,
      "##'\n": 1102,
      "##'d, ": 1103,
      "##SS": 1104,
      "##II": 1105,
      "##sor": 1106,
      "  V": 1107,
      "##ree ": 1108,
      "##made ": 1109,
      "##tongu": 1110,
      "##ow, ": 1111,
      "##sh ": 1112,
      "##Eng": 1113,
      "##cer": 1114,
      "##hast ": 1115,
      "##look": 1116,
      "##to my ": 1117,
      "##eed": 1118,
      "##than": 1119,
      "##old": 1120,
      "##ign": 1121,
      "##mat": 1122,
      "##th, ": 1123,
      "##t is ": 1124,
      "##.        ": 1125,
      "##se.\n": 1126,
      "##us, ": 1127,
      "##RY": 1128,
      "##there ": 1129,
      "##Jo": 1130,
      "##litt": 1131,
      "##ought ": 1132,
      "##hou": 1133,
      "##ORK": 1134,
      "##ESTER": 1135,
      "##pe": 1136,
      "##Qu": 1137,
      "##daugh": 1138,
      "##hat's ": 1139,
      "##RA": 1140,
      "##how ": 1141,
      "##INE": 1142,
      "##ESS": 1143,
      "##. O, ": 1144,
      "##ing, ": 1145,
      "##ise ": 1146,
      "##por": 1147,
      "    So ": 1148,
      "##To ": 1149,
      "##are": 1150,
      "##new": 1151,
      "##my lord": 1152,
      "##COM": 1153,
      "##QUE": 1154,
      "##. A ": 1155,
      "##TIM": 1156,
      "    You ": 1157,
      "##ANTON": 1158,
      "##these ": 1159,
      "  N": 1160,
      "##pi": 1161,
      "##. [": 1162,
      "##se, ": 1163,
      "##G ": 1164,
      "##Lord ": 1165,
      "##Rom": 1166,
      "##youn": 1167,
      "##beg": 1168,
      "##OND ": 1169,
      "##. Why, ": 1170,
      "##ity ": 1171,
      "##ECOND ": 1172,
      "##STA": 1173,
      "##nor ": 1174,
      "##ali": 1175,
      "##fell": 1176,
      "##vil": 1177,
      "##who ": 1178,
      "##ur ": 1179,
      "##sle": 1180,
      "##hall ": 1181,
      "    Is ": 1182,
      "##in his ": 1183,
      "##eep ": 1184,
      "##AL ": 1185,
      "##day ": 1186,
      "    Or ": 1187,
      "##ell ": 1188,
      "##a\n": 1189,
      "##lu": 1190,
      "##yself": 1191,
      "##pow": 1192,
      "##pas": 1193,
      "##answ": 1194,
      "##brother": 1195,
      "##INE ": 1196,
      "##ton": 1197,
      "##ve\n": 1198,
      "##ONIC": 1199,
      "##ROS": 1200,
      "##dra": 1201,
      "##before ": 1202,
      "##tal": 1203,
      "##shall be ": 1204,
      "##leave ": 1205,
      "##ces": 1206,
      "##IES ": 1207,
      "##'d.\n": 1208,
      "##stres": 1209,
      "##upon ": 1210,
      "##k, ": 1211,
      "##Mar": 1212,
      "##sta": 1213,
      "##99": 1214,
      "##And ": 1215,
      "##cor": 1216,
      "##RE": 1217,
      "##What ": 1218,
      "##being ": 1219,
      "##ly": 1220,
      "##OST": 1221,
      "##every ": 1222,
      "##199": 1223,
      "##sti": 1224,
      "##ENT": 1225,
      "##, AND ": 1226,
      "## me": 1227,
      "##ELEC": 1228,
      "##TRONIC": 1229,
      "##MERCI": 1230,
      "##) ARE ": 1231,
      "##ELECTRONIC": 1232,
      "##ELECTRONIC ": 1233,
      "##DISTRIBU": 1234,
      "  SECOND ": 1235,
      "##COPIES ": 1236,
      "##pray ": 1237,
      "##not, ": 1238,
      "##it, ": 1239,
      "##side": 1240,
      "##er, ": 1241,
      "## thee": 1242,
      "## these ": 1243,
      "##mean": 1244,
      "##Exeunt ": 1245,
      "##Exeunt\n": 1246,
      "##think": 1247,
      "##on, ": 1248,
      "##LOUC": 1249,
      "##LOUCESTER": 1250,
      "##ce,\n": 1251,
      "##dst ": 1252,
      "##stand ": 1253,
      "##sol": 1254,
      "##bes": 1255,
      "##call": 1256,
      "##att": 1257,
      "##with a ": 1258,
      "##]  ": 1259,
      "##er.\n": 1260,
      "##against ": 1261,
      "##mine ": 1262,
      "##down": 1263,
      "##look ": 1264,
      "    E": 1265,
      "##up ": 1266,
      "##nigh": 1267,
      "##t of ": 1268,
      "##The ": 1269,
      "##Fran": 1270,
      "    In": 1271,
      "##wea": 1272,
      "##s; ": 1273,
      "##fortun": 1274,
      "##sure ": 1275,
      "##to-": 1276,
      "##Exit ": 1277,
      "##find ": 1278,
      "##this": 1279,
      "##I do ": 1280,
      "##. Ay, ": 1281,
      "##y's ": 1282,
      "##put ": 1283,
      "##PER": 1284,
      "##poor ": 1285,
      "##he": 1286,
      "    By ": 1287,
      "##by the ": 1288,
      "##fool": 1289,
      "##clo": 1290,
      "##nam": 1291,
      "##sla": 1292,
      "##AD": 1293,
      "##for the ": 1294,
      "##worl": 1295,
      "##master": 1296,
      "##there": 1297,
      "##QUEEN": 1298,
      "##vir": 1299,
      "##now, ": 1300,
      "##gr": 1301,
      "##UN": 1302,
      "##sure": 1303,
      "##follow": 1304,
      "##s?\n": 1305,
      "##s the ": 1306,
      "##run": 1307,
      "##rit": 1308,
      "##den": 1309,
      "##God ": 1310,
      "##y?\n": 1311,
      "##fair": 1312,
      "  DUK": 1313,
      "##set ": 1314,
      "##under": 1315,
      "##Caes": 1316,
      "##ene": 1317,
      "##you are ": 1318,
      "    Ha": 1319,
      "      ": 1320,
      "##men ": 1321,
      "##tell": 1322,
      "  E": 1323,
      "  ANTON": 1324,
      "##. How ": 1325,
      "##true ": 1326,
      "##sed ": 1327,
      "##of your ": 1328,
      "##cont": 1329,
      "##mb": 1330,
      "##grie": 1331,
      "##hor": 1332,
      "##y, and ": 1333,
      "##vill": 1334,
      "##ure": 1335,
      "##you have ": 1336,
      "##ound": 1337,
      "##OWN": 1338,
      "##qui": 1339,
      "##from the ": 1340,
      "##. This ": 1341,
      "##hop": 1342,
      "##; th": 1343,
      "##out": 1344,
      "##atch": 1345,
      "##show": 1346,
      "                           ": 1347,
      "##. If ": 1348,
      "##which": 1349,
      "##van": 1350,
      "  J": 1351,
      "## than ": 1352,
      "##in a ": 1353,
      "##LI": 1354,
      "##Exit\n": 1355,
      "##ban": 1356,
      "##se,\n": 1357,
      "  LUC": 1358,
      "##sion": 1359,
      "##ICK": 1360,
      "##like a ": 1361,
      "##in\n": 1362,
      "##sub": 1363,
      "##little ": 1364,
      "## them ": 1365,
      "##GO": 1366,
      "##'d,\n": 1367,
      "  O": 1368,
      "## hear": 1369,
      "##ell, ": 1370,
      "##hold ": 1371,
      "##UM": 1372,
      "##way ": 1373,
      "##Que": 1374,
      "##STAFF": 1375,
      "## ma": 1376,
      "##whose ": 1377,
      "##ry, ": 1378,
      "##wrong": 1379,
      "##ses ": 1380,
      "##HEN": 1381,
      "##you\n": 1382,
      "##CE": 1383,
      "##of this ": 1384,
      "##ation ": 1385,
      "##eel": 1386,
      "##RICH": 1387,
      "##y;\n": 1388,
      "  TH": 1389,
      "SCENE ": 1390,
      "    I'll ": 1391,
      "##ke": 1392,
      "##in this ": 1393,
      "##ing\n": 1394,
      "##st, ": 1395,
      "##of a ": 1396,
      "##usb": 1397,
      "##AT": 1398,
      "##AST": 1399,
      "    An": 1400,
      "##ely ": 1401,
      "##dou": 1402,
      "##conf": 1403,
      "##gon": 1404,
      "##KING": 1405,
      "##cre": 1406,
      "##Duke ": 1407,
      "##gar": 1408,
      "##ing.\n": 1409,
      "##les ": 1410,
      "##ARG": 1411,
      "##fal": 1412,
      "##OLLE": 1413,
      "  And ": 1414,
      "##ORL": 1415,
      "  Ham": 1416,
      "##better ": 1417,
      "##father ": 1418,
      "##with m": 1419,
      "##ALSTAFF": 1420,
      "    Thou ": 1421,
      "##of\n": 1422,
      "##. O ": 1423,
      "    When ": 1424,
      "##I th": 1425,
      "##stran": 1426,
      "##ft ": 1427,
      "##th' ": 1428,
      "##sigh": 1429,
      "##.  [": 1430,
      "##mis": 1431,
      "##th\n": 1432,
      "##into ": 1433,
      "  IA": 1434,
      "##Joh": 1435,
      "##woman": 1436,
      "##y; ": 1437,
      "##till ": 1438,
      "##lord, ": 1439,
      "##d's ": 1440,
      "##lar": 1441,
      "##'r": 1442,
      "##thee, ": 1443,
      "##app": 1444,
      "  GLOUCESTER": 1445,
      "##HENRY": 1446,
      "##such a ": 1447,
      "##Y\n": 1448,
      "##happ": 1449,
      "##ck, ": 1450,
      "    His ": 1451,
      "##Prin": 1452,
      "##ob": 1453,
      "##I.\n": 1454,
      "##'er ": 1455,
      "    We ": 1456,
      "##full ": 1457,
      "##ut, ": 1458,
      "##v'd ": 1459,
      "##stra": 1460,
      "##honour": 1461,
      "##GE": 1462,
      "##gre": 1463,
      "##sen": 1464,
      "##OB": 1465,
      "  QUEEN": 1466,
      "##ings ": 1467,
      "##pal": 1468,
      "##king ": 1469,
      "    Un": 1470,
      "##ELLO": 1471,
      "##ect ": 1472,
      "##hol": 1473,
      "##is\n": 1474,
      "##e of ": 1475,
      "##. Nay, ": 1476,
      "##ever": 1477,
      "##a h": 1478,
      "##th.\n": 1479,
      "  CLO": 1480,
      "    Your ": 1481,
      "## must ": 1482,
      "##. Come, ": 1483,
      "  DUKE": 1484,
      "##best ": 1485,
      "##roy": 1486,
      "##will not ": 1487,
      "##how": 1488,
      "##tear": 1489,
      "##Gra": 1490,
      "##I\n": 1491,
      "## hon": 1492,
      "##reme": 1493,
      "    How ": 1494,
      "##cious ": 1495,
      "##. Good ": 1496,
      "##over": 1497,
      "##;  \n": 1498,
      "##led ": 1499,
      "##virtu": 1500,
      "##name ": 1501,
      "##ve, ": 1502,
      "##ES. ": 1503,
      "##to\n": 1504,
      "##. Let ": 1505,
      "##hel": 1506,
      "##me.\n": 1507,
      "##gen": 1508,
      "##?  \n": 1509,
      "##e to ": 1510,
      "    With": 1511,
      "##word": 1512,
      "##madam": 1513,
      "  KING HENRY": 1514,
      "##prin": 1515,
      "##that I ": 1516,
      "##ter, ": 1517,
      "##nes": 1518,
      "##ting ": 1519,
      "##bar": 1520,
      "  BR": 1521,
      "##heaven": 1522,
      "##first ": 1523,
      "##won": 1524,
      "##LU": 1525,
      "##ETH": 1526,
      "##th,\n": 1527,
      "##arewell": 1528,
      "    R": 1529,
      "##hal": 1530,
      "  FALSTAFF": 1531,
      "##us.\n": 1532,
      "##wel": 1533,
      "##sk": 1534,
      "##form": 1535,
      "##ook": 1536,
      "##read": 1537,
      "##reason": 1538,
      "##call ": 1539,
      "##st\n": 1540,
      "##stand": 1541,
      "##gentle ": 1542,
      "  ROS": 1543,
      "##stri": 1544,
      "##law": 1545,
      "##dost ": 1546,
      "##my lord, ": 1547,
      "##soldi": 1548,
      "##row ": 1549,
      "##IOL": 1550,
      "##he is ": 1551,
      "##gn": 1552,
      "##. 'Tis ": 1553,
      "##come, ": 1554,
      "    Be": 1555,
      "##jest": 1556,
      "##RICHARD": 1557,
      "##Sir ": 1558,
      "##LORD": 1559,
      "##temp": 1560,
      "##ship": 1561,
      "## may ": 1562,
      "##nothing ": 1563,
      "##in your ": 1564,
      "##ces ": 1565,
      "##cap": 1566,
      "##night": 1567,
      "##s!\n": 1568,
      "##A ": 1569,
      "##to your ": 1570,
      "##faith": 1571,
      "##eyes ": 1572,
      "##. I'll ": 1573,
      "##assi": 1574,
      "##might ": 1575,
      "##IV": 1576,
      "##bid ": 1577,
      "##yself ": 1578,
      "##sur": 1579,
      "##say": 1580,
      "##heart ": 1581,
      "##cen": 1582,
      "##cei": 1583,
      "##enter ": 1584,
      "##fall": 1585,
      "##. I am ": 1586,
      "##husb": 1587,
      "##keep": 1588,
      "##many ": 1589,
      "##ward ": 1590,
      "    Let ": 1591,
      "##done ": 1592,
      "##wit": 1593,
      "##live ": 1594,
      "    Than ": 1595,
      "##some": 1596,
      "##s are ": 1597,
      "##ain ": 1598,
      "    the ": 1599,
      "##stru": 1600,
      "##e!\n": 1601,
      "##ud": 1602,
      "##sun": 1603,
      "##pati": 1604,
      "##bur": 1605,
      "## that": 1606,
      "##ree": 1607,
      "##at the ": 1608,
      "##heart": 1609,
      "##gain": 1610,
      "##O, ": 1611,
      "##MAN": 1612,
      "##I would ": 1613,
      "##le.\n": 1614,
      "##has ": 1615,
      "##IAM": 1616,
      "                                           ": 1617,
      "##ILLIAM": 1618,
      "##bus": 1619,
      "##ade ": 1620,
      "##int": 1621,
      "##crown": 1622,
      "##ANIO": 1623,
      "##ly, ": 1624,
      "##IM": 1625,
      "##ouch": 1626,
      "##. Thou ": 1627,
      "##sent ": 1628,
      "##OUR": 1629,
      "##e and ": 1630,
      "##spo": 1631,
      "##. No, ": 1632,
      "##Caesar": 1633,
      "##har": 1634,
      "##EPH": 1635,
      "##part ": 1636,
      "##ousand ": 1637,
      "##RINC": 1638,
      "##er\n": 1639,
      "##in m": 1640,
      "##; for ": 1641,
      "##the\n": 1642,
      "    Of": 1643,
      "##dar": 1644,
      "##.'\n": 1645,
      "##s'd ": 1646,
      "##vis": 1647,
      "##chil": 1648,
      "##chang": 1649,
      "##shall": 1650,
      "##. So ": 1651,
      "##bon": 1652,
      "##. To ": 1653,
      "##get ": 1654,
      "##lic": 1655,
      "##Anton": 1656,
      "##ATH": 1657,
      "##in, ": 1658,
      "                     ": 1659,
      "##day": 1660,
      "##dear ": 1661,
      "##hath": 1662,
      "##still ": 1663,
      "##will be ": 1664,
      "##here's ": 1665,
      "##ROV": 1666,
      "##so, ": 1667,
      "                                                   ": 1668,
      "##spiri": 1669,
      "##turn": 1670,
      "##fe": 1671,
      "##Ro": 1672,
      "##is, ": 1673,
      "##where": 1674,
      "    Shall ": 1675,
      "##blood ": 1676,
      "##able ": 1677,
      "##let me ": 1678,
      "##win": 1679,
      "##UTUS. ": 1680,
      "    And, ": 1681,
      "  BRUTUS. ": 1682,
      "##Y, ": 1683,
      "##world ": 1684,
      "##for my ": 1685,
      "##GH": 1686,
      "##UL": 1687,
      "##t and ": 1688,
      "##about ": 1689,
      "##ERVANT": 1690,
      "##h, ": 1691,
      "##; the ": 1692,
      "##to his ": 1693,
      "##faul": 1694,
      "##both ": 1695,
      "##hose ": 1696,
      "## me, ": 1697,
      "##shalt ": 1698,
      "##ESS. ": 1699,
      "    Who ": 1700,
      "##.                        ": 1701,
      "##ere's ": 1702,
      "##tain ": 1703,
      "    Have ": 1704,
      "##much": 1705,
      "##OTHELLO": 1706,
      "##villain": 1707,
      "##ach": 1708,
      "  OTHELLO": 1709,
      "##ish ": 1710,
      "##s! ": 1711,
      "##as I ": 1712,
      "##long ": 1713,
      "##ither ": 1714,
      "##devil": 1715,
      "##THE ": 1716,
      "  IAGO": 1717,
      "##strong": 1718,
      "##good": 1719,
      "##; I ": 1720,
      "  SH": 1721,
      "##wear": 1722,
      "##kis": 1723,
      "##ence, ": 1724,
      "##IR ": 1725,
      "##daughter": 1726,
      "##ving ": 1727,
      "##thus ": 1728,
      "##is not ": 1729,
      "##sion ": 1730,
      "##for a ": 1731,
      "##servi": 1732,
      "##ISS": 1733,
      "##fellow": 1734,
      "##none ": 1735,
      "##a th": 1736,
      "##fur": 1737,
      "##He ": 1738,
      "##age ": 1739,
      "##him.\n": 1740,
      "##young ": 1741,
      "  ROSAL": 1742,
      "##cri": 1743,
      "##cra": 1744,
      "##and the ": 1745,
      "##'d to ": 1746,
      "##. That ": 1747,
      "##come to ": 1748,
      "##ERS\n": 1749,
      "##please ": 1750,
      "##hum": 1751,
      "##ment ": 1752,
      "##night ": 1753,
      "##hang": 1754,
      "##came ": 1755,
      "  AR": 1756,
      "##toge": 1757,
      "  BER": 1758,
      "##. Sir": 1759,
      "##away ": 1760,
      "##letter": 1761,
      "##once ": 1762,
      "##eal": 1763,
      "  CASS": 1764,
      "##ct": 1765,
      "##oa": 1766,
      "##o.\n": 1767,
      "##NO": 1768,
      "##s that ": 1769,
      "##on.\n": 1770,
      "##d;\n": 1771,
      "##wo": 1772,
      "##pu": 1773,
      "##PLE": 1774,
      "##. We ": 1775,
      "##YORK": 1776,
      "##as the ": 1777,
      "    It ": 1778,
      "##rant ": 1779,
      "    Where ": 1780,
      "##i'": 1781,
      "##s' ": 1782,
      "##st.\n": 1783,
      "##ther, ": 1784,
      "##cla": 1785,
      "##ness": 1786,
      "##pen": 1787,
      "  MAR": 1788,
      "##TRA": 1789,
      "##dear": 1790,
      "##year": 1791,
      "##xt ": 1792,
      "##ITH": 1793,
      "##without ": 1794,
      "    Be ": 1795,
      "##OLK": 1796,
      "##life ": 1797,
      "##bla": 1798,
      "AC": 1799,
      "##wat": 1800,
      "##pl": 1801,
      "##You ": 1802,
      "##UFF": 1803,
      "##sic": 1804,
      "##urn ": 1805,
      "##do not ": 1806,
      "##cause ": 1807,
      "##draw": 1808,
      "  CLOWN": 1809,
      "##ook ": 1810,
      "##if you ": 1811,
      "##doub": 1812,
      "##stat": 1813,
      "##seem": 1814,
      "##ros": 1815,
      "##else ": 1816,
      "##me\n": 1817,
      "##Aside": 1818,
      "##CUS": 1819,
      "##ini": 1820,
      "##offi": 1821,
      "##eech ": 1822,
      "    From": 1823,
      "##EMB": 1824,
      "  ANTONY": 1825,
      "##drea": 1826,
      "##think ": 1827,
      "##saf": 1828,
      "##. Well, ": 1829,
      "##ffec": 1830,
      "##col": 1831,
      "##Ed": 1832,
      "##ite ": 1833,
      "##. I have ": 1834,
      "##. It ": 1835,
      "##S S": 1836,
      "##deser": 1837,
      "##ron": 1838,
      "##ing the ": 1839,
      "##star": 1840,
      "  MA": 1841,
      "##tre": 1842,
      "    and ": 1843,
      "## more ": 1844,
      "##eeds ": 1845,
      "    Our ": 1846,
      "##TION": 1847,
      "    Up": 1848,
      "##kill": 1849,
      "##is a ": 1850,
      "##you shall ": 1851,
      "##does ": 1852,
      "##me,\n": 1853,
      "##hear ": 1854,
      "##UTEN": 1855,
      "##cous": 1856,
      "##GE\n": 1857,
      "##though ": 1858,
      "##Re-": 1859,
      "##mber": 1860,
      "##prom": 1861,
      "##pain": 1862,
      "##OPA": 1863,
      "##eng": 1864,
      "##ce of ": 1865,
      "##el ": 1866,
      "  PRINC": 1867,
      "##WICK": 1868,
      "  AL": 1869,
      "##LEOPA": 1870,
      "##a man": 1871,
      "##honour ": 1872,
      "##sleep": 1873,
      "##a, ": 1874,
      "##land ": 1875,
      "##LEOPATRA": 1876,
      "##dd": 1877,
      "##t;\n": 1878,
      "##BR": 1879,
      "##LON": 1880,
      "##ARWICK": 1881,
      "##with him": 1882,
      "##. By ": 1883,
      "##TA": 1884,
      "##il ": 1885,
      "##even ": 1886,
      "##gla": 1887,
      "##ten ": 1888,
      "##fin": 1889,
      "##anc": 1890,
      "##be\n": 1891,
      "             ": 1892,
      "##TIMON": 1893,
      "##hour": 1894,
      "##For": 1895,
      "##My ": 1896,
      "##en\n": 1897,
      "##itor": 1898,
      "##lay ": 1899,
      "##INO": 1900,
      "##comfor": 1901,
      "##gener": 1902,
      "##hand ": 1903,
      "##WILLIAM": 1904,
      "         ": 1905,
      "##with his ": 1906,
      "##busin": 1907,
      "##y!\n": 1908,
      "##bi": 1909,
      "##bor": 1910,
      "##, a ": 1911,
      "##unc": 1912,
      "##ENA": 1913,
      "##heard ": 1914,
      "##ERSON": 1915,
      "##mistres": 1916,
      "##ga": 1917,
      "##Ri": 1918,
      "##LE ": 1919,
      "    If": 1920,
      "##morrow": 1921,
      "##. If": 1922,
      "##death ": 1923,
      "##serv": 1924,
      "##since ": 1925,
      "##down ": 1926,
      "##in th": 1927,
      "##still": 1928,
      "##lip": 1929,
      "##le\n": 1930,
      "##word ": 1931,
      "##my lord.\n": 1932,
      "##rough": 1933,
      "##HA": 1934,
      "##, that ": 1935,
      "##st,\n": 1936,
      "##voi": 1937,
      "##sing": 1938,
      "##ks ": 1939,
      "##fear ": 1940,
      "##in.\n": 1941,
      "##chi": 1942,
      "    Will ": 1943,
      "##sir.\n": 1944,
      "##prison": 1945,
      "  KING RICHARD": 1946,
      "##ENTLE": 1947,
      "##Re-enter ": 1948,
      "##ke\n": 1949,
      "##nothing": 1950,
      "##THA": 1951,
      "##. Then ": 1952,
      "##GER": 1953,
      "##fea": 1954,
      "##of our ": 1955,
      "  LA": 1956,
      "##purpo": 1957,
      "##e'll ": 1958,
      "##ring": 1959,
      "##keep ": 1960,
      "##Yor": 1961,
      "##HAM": 1962,
      "##not\n": 1963,
      "##high": 1964,
      "##shor": 1965,
      "##uty ": 1966,
      "##T OF ": 1967,
      "##grow": 1968,
      "##t to ": 1969,
      "##ere, ": 1970,
      "##belie": 1971,
      "##. What, ": 1972,
      "    Thy ": 1973,
      "##him, ": 1974,
      "##ne ": 1975,
      "##ning ": 1976,
      "##SY": 1977,
      "##foul": 1978,
      "##BI": 1979,
      "##of thy ": 1980,
      "##che": 1981,
      "##no more ": 1982,
      "##TEX": 1983,
      "##MACH": 1984,
      "##OTHERS\n": 1985,
      "##compan": 1986,
      "##prou": 1987,
      "##HIP": 1988,
      "##RACUS": 1989,
      "##SYRACUS": 1990,
      "##o'er": 1991,
      "  QUEEN ": 1992,
      "##woul": 1993,
      "##ke, ": 1994,
      "##VERS": 1995,
      "##back": 1996,
      "##TEN": 1997,
      "##DER": 1998,
      "##another ": 1999,
      "##makes ": 2000,
      "##brother ": 2001,
      "##IS\n": 2002,
      "##ED\n": 2003,
      "##present": 2004,
      "## OF THE ": 2005,
      "##IMO": 2006,
      "##TE ": 2007,
      "##na": 2008,
      "##ty": 2009,
      "##bear ": 2010,
      "##tic": 2011,
      "##cell": 2012,
      "##ICE ": 2013,
      "##peop": 2014,
      "##DES ": 2015,
      "##ED ": 2016,
      "##ETEX": 2017,
      "##to a ": 2018,
      "##ABLE ": 2019,
      "##right ": 2020,
      "##ESSEN": 2021,
      "##John": 2022,
      "##gainst ": 2023,
      "ACT ": 2024,
      "##ot": 2025,
      "##KES": 2026,
      "##(2": 2027,
      "##reven": 2028,
      "##'d the ": 2029,
      "##deli": 2030,
      "##E OR ": 2031,
      "##THIS ": 2032,
      "##CHARG": 2033,
      "##T G": 2034,
      "##TES. ": 2035,
      "##INCLU": 2036,
      "##UCH ": 2037,
      "##PEARE ": 2038,
      "##COMPLE": 2039,
      "##NOT ": 2040,
      "##ITH ": 2041,
      "##TION ": 2042,
      "##WILLIAM\n": 2043,
      "##HAKES": 2044,
      "##ESSENGER": 2045,
      "##CHARGES ": 2046,
      "##COMPLETE ": 2047,
      "##HAKESPEARE ": 2048,
      "DISTRIBU": 2049,
      "##myself": 2050,
      "##ly.\n": 2051,
      "##SO ": 2052,
      "##BE\n": 2053,
      "##vy ": 2054,
      "##US ": 2055,
      "##JEC": 2056,
      "##0-": 2057,
      "##3 ": 2058,
      "##IND": 2059,
      "##E ON": 2060,
      "##ICT": 2061,
      "##MAY ": 2062,
      "##BY W": 2063,
      "##FOR M": 2064,
      "##IDED ": 2065,
      "##Master ": 2066,
      "##PROJEC": 2067,
      "##COMMERCI": 2068,
      "##LIBR": 2069,
      "##UTENBER": 2070,
      "##THAT ": 2071,
      "##T GUTENBER": 2072,
      "##PROJECT GUTENBER": 2073,
      "##LIBRAR": 2074,
      "COM": 2075,
      "PROV": 2076,
      "SHAKESPEARE ": 2077,
      "## OR ": 2078,
      "##nor": 2079,
      "##AS S": 2080,
      "##pit": 2081,
      "##far": 2082,
      "##COLLE": 2083,
      "##BEN": 2084,
      "##DOWN": 2085,
      "##YRI": 2086,
      "##YOUR": 2087,
      "##MISS": 2088,
      "##WORK": 2089,
      "##(1": 2090,
      "##D LIBRAR": 2091,
      "##ALLY": 2092,
      "##que": 2093,
      "##T 199": 2094,
      "##OR US": 2095,
      "##USE ON": 2096,
      "##ERSHIP": 2097,
      "##EDICT": 2098,
      "##.  PRO": 2099,
      "##INC.": 2100,
      "##IS COP": 2101,
      "##IS BEN": 2102,
      "##BY AN": 2103,
      "##BY PROJECT GUTENBER": 2104,
      "##FOR DOWN": 2105,
      "##FOR YOUR": 2106,
      "##TED COMMERCI": 2107,
      "##TED OR US": 2108,
      "##LY, AND ": 2109,
      "##ION OF THE ": 2110,
      "##ERVICE ": 2111,
      "##HIBI": 2112,
      "##G ETEX": 2113,
      "##G AS S": 2114,
      "##AL USE ON": 2115,
      "##INE RE": 2116,
      "##INE COLLE": 2117,
      "##1993 ": 2118,
      "##) ARE FOR YOUR": 2119,
      "##ELECTRONIC VERS": 2120,
      "##PERMISS": 2121,
      "##ADABLE ": 2122,
      "##ORLD LIBRAR": 2123,
      "##Y, INC.": 2124,
      "##GHT 199": 2125,
      "##EMBERSHIP": 2126,
      "##LONG AS S": 2127,
      "##INOIS BEN": 2128,
      "##ERSONAL USE ON": 2129,
      "##DES BY AN": 2130,
      "##(2) ARE ": 2131,
      "##E OR FOR M": 2132,
      "##INCLUDES BY AN": 2133,
      "##ITH PERMISS": 2134,
      "##TION INCLUDES BY AN": 2135,
      "##CHARGES FOR DOWN": 2136,
      "##COMPLETE WORK": 2137,
      "##SO LONG AS S": 2138,
      "##0-1993 ": 2139,
      "##BY WORLD LIBRAR": 2140,
      "##IDED BY PROJECT GUTENBER": 2141,
      "##THAT CHARGES FOR DOWN": 2142,
      "SHAKESPEARE IS COP": 2143,
      "##YRIGHT 199": 2144,
      "##ALLY.  PRO": 2145,
      "##EDICTINE COLLE": 2146,
      "##LY, AND (2) ARE ": 2147,
      "##ION OF THE COMPLETE WORK": 2148,
      "##ERVICE THAT CHARGES FOR DOWN": 2149,
      "##HIBITED COMMERCI": 2150,
      "##INE READABLE ": 2151,
      "##) ARE FOR YOUR OR ": 2152,
      "##ELECTRONIC VERSION OF THE COMPLETE WORK": 2153,
      "##INOIS BENEDICTINE COLLE": 2154,
      "##ERSONAL USE ONLY, AND (2) ARE ": 2155,
      "##E OR FOR MEMBERSHIP": 2156,
      "##ITH PERMISSION": 2157,
      "##SO LONG AS SUCH ": 2158,
      "##0-1993 BY WORLD LIBRAR": 2159,
      "##IDED BY PROJECT GUTENBERG ETEX": 2160,
      "SHAKESPEARE IS COPYRIGHT 199": 2161,
      "##ALLY.  PROHIBITED COMMERCI": 2162,
      "##ERVICE THAT CHARGES FOR DOWNLO": 2163,
      "##INE READABLE COPIES ": 2164,
      "##ELECTRONIC VERSION OF THE COMPLETE WORKS OF ": 2165,
      "##0-1993 BY WORLD LIBRARY, INC.": 2166,
      "SHAKESPEARE IS COPYRIGHT 1990-1993 BY WORLD LIBRARY, INC.": 2167,
      "<<": 2168,
      "PERSONAL USE ONLY, AND (2) ARE ": 2169,
      "SERVICE THAT CHARGES FOR DOWNLO": 2170,
      "WITH PERMISSION": 2171,
      "##crea": 2172,
      "##.>": 2173,
      "##AD ": 2174,
      "##kind": 2175,
      "##, my ": 2176,
      "##.  ELECTRONIC ": 2177,
      "##AND MACH": 2178,
      "##TED SO LONG AS SUCH ": 2179,
      "##ILLINOIS BENEDICTINE COLLE": 2180,
      "##TIME OR FOR MEMBERSHIP": 2181,
      "##AL DISTRIBU": 2182,
      "##MERCIALLY.  PROHIBITED COMMERCI": 2183,
      "##DISTRIBUTED OR US": 2184,
      "##COPIES (1": 2185,
      "##T OF ILLINOIS BENEDICTINE COLLE": 2186,
      "##THIS ELECTRONIC VERSION OF THE COMPLETE WORKS OF ": 2187,
      "##NOT DISTRIBUTED OR US": 2188,
      "DISTRIBUTED SO LONG AS SUCH ": 2189,
      "COMMERCIALLY.  PROHIBITED COMMERCI": 2190,
      "PROVIDED BY PROJECT GUTENBERG ETEX": 2191,
      "##INE READABLE COPIES MAY ": 2192,
      "SHAKESPEARE IS COPYRIGHT 1990-1993 BY WORLD LIBRARY, INC., AND ": 2193,
      "<<THIS ELECTRONIC VERSION OF THE COMPLETE WORKS OF ": 2194,
      "PERSONAL USE ONLY, AND (2) ARE NOT DISTRIBUTED OR US": 2195,
      "SERVICE THAT CHARGES FOR DOWNLOAD ": 2196,
      "WITH PERMISSION.  ELECTRONIC ": 2197,
      "##.>>": 2198,
      "##AND MACHINE READABLE COPIES MAY ": 2199,
      "##TIME OR FOR MEMBERSHIP.>>": 2200,
      "##AL DISTRIBUTION INCLUDES BY AN": 2201,
      "##COPIES (1) ARE FOR YOUR OR ": 2202,
      "##T OF ILLINOIS BENEDICTINE COLLEGE\n": 2203,
      "DISTRIBUTED SO LONG AS SUCH COPIES (1) ARE FOR YOUR OR ": 2204,
      "COMMERCIALLY.  PROHIBITED COMMERCIAL DISTRIBUTION INCLUDES BY AN": 2205,
      "PROVIDED BY PROJECT GUTENBERG ETEXT OF ILLINOIS BENEDICTINE COLLEGE\n": 2206,
      "SERVICE THAT CHARGES FOR DOWNLOAD TIME OR FOR MEMBERSHIP.>>": 2207,
      "WITH PERMISSION.  ELECTRONIC AND MACHINE READABLE COPIES MAY ": 2208,
      "##d, and ": 2209,
      "##sal": 2210,
      "## here ": 2211,
      "##desir": 2212,
      "SHAKESPEARE IS COPYRIGHT 1990-1993 BY WORLD LIBRARY, INC., AND IS\n": 2213,
      "<<THIS ELECTRONIC VERSION OF THE COMPLETE WORKS OF WILLIAM\n": 2214,
      "PERSONAL USE ONLY, AND (2) ARE NOT DISTRIBUTED OR USED\n": 2215,
      "DISTRIBUTED SO LONG AS SUCH COPIES (1) ARE FOR YOUR OR OTHERS\n": 2216,
      "COMMERCIALLY.  PROHIBITED COMMERCIAL DISTRIBUTION INCLUDES BY ANY\n": 2217,
      "SERVICE THAT CHARGES FOR DOWNLOAD TIME OR FOR MEMBERSHIP.>>\n": 2218,
      "WITH PERMISSION.  ELECTRONIC AND MACHINE READABLE COPIES MAY BE\n": 2219,
      "##dang": 2220,
      "##in thy ": 2221,
      "##shoul": 2222,
      "##? W": 2223,
      "##earn": 2224,
      "##und": 2225,
      "##worthy ": 2226,
      "##mother": 2227,
      "##father's ": 2228,
      "AN": 2229,
      "##non": 2230,
      "##!  \n": 2231,
      "##ers, ": 2232,
      "##stay ": 2233,
      "##ray ": 2234,
      "##fav": 2235,
      "    They ": 2236,
      "##eon": 2237,
      "##Cassi": 2238,
      "##t the ": 2239,
      "##es, and ": 2240,
      "##ROM": 2241,
      "    Li": 2242,
      "##meet ": 2243,
      "##gg": 2244,
      "##trea": 2245,
      "##ye": 2246,
      "##kind ": 2247,
      "##bit": 2248,
      "##RS. ": 2249,
      "##left ": 2250,
      "##sil": 2251,
      "##said ": 2252,
      "##tend": 2253,
      "  LE": 2254,
      "##enem": 2255,
      "##it be ": 2256,
      "##; he ": 2257,
      "##I, ": 2258,
      "##only ": 2259,
      "##eet": 2260,
      "##.                                ": 2261,
      "##o' th' ": 2262,
      "##Duke of ": 2263,
      "  MAC": 2264,
      "##SYRACUSE": 2265,
      "##vent": 2266,
      "##Lu": 2267,
      "##oura": 2268,
      "##TIT": 2269,
      "##ition": 2270,
      "  TIMON": 2271,
      "##stor": 2272,
      "##lish ": 2273,
      "##with my ": 2274,
      "##so.\n": 2275,
      "##part": 2276,
      "##pardon": 2277,
      "##should be ": 2278,
      "##gentleman": 2279,
      "##answer ": 2280,
      "##gave ": 2281,
      "##som": 2282,
      "##CA": 2283,
      "##those ": 2284,
      "##rep": 2285,
      "##e-": 2286,
      "##BETH": 2287,
      "##then, ": 2288,
      "##you th": 2289,
      "##you m": 2290,
      "##ques": 2291,
      "##Hen": 2292,
      "##wish": 2293,
      "    I am ": 2294,
      "##. Not ": 2295,
      "##god": 2296,
      "##le, ": 2297,
      "##lat": 2298,
      "##sm": 2299,
      "##val": 2300,
      "##on my ": 2301,
      "##of h": 2302,
      "##; for": 2303,
      "##. I will ": 2304,
      "##prove ": 2305,
      "##as a ": 2306,
      "##INIUS. ": 2307,
      "  CLEOPATRA": 2308,
      "  PA": 2309,
      "##thou art ": 2310,
      "    I have ": 2311,
      "##IUS": 2312,
      "##not.\n": 2313,
      "##ool": 2314,
      "##who": 2315,
      "##TIPH": 2316,
      "##ect": 2317,
      "##better": 2318,
      "    Which": 2319,
      "##times ": 2320,
      "##after ": 2321,
      "## heaven": 2322,
      "##Queen": 2323,
      "##TIPHOL": 2324,
      "##dom": 2325,
      "##, but ": 2326,
      "##told ": 2327,
      "  MRS. ": 2328,
      "##love, ": 2329,
      "    Yet ": 2330,
      "##bring": 2331,
      "##ctor": 2332,
      "##send ": 2333,
      "##High": 2334,
      "  AN": 2335,
      "##hast": 2336,
      "##eed, ": 2337,
      "##ack ": 2338,
      "##drin": 2339,
      "##ction": 2340,
      "##au": 2341,
      "##GENTLE": 2342,
      "##But ": 2343,
      "  YORK": 2344,
      "##each ": 2345,
      "  ROSALIND": 2346,
      "##swear": 2347,
      "##fre": 2348,
      "##US OF ": 2349,
      "##WARD": 2350,
      "    '": 2351,
      "##you to ": 2352,
      "##sum": 2353,
      "##ter the ": 2354,
      "##play ": 2355,
      "##TIPHOLUS OF ": 2356,
      "##ct ": 2357,
      "##cam": 2358,
      "##er,\n": 2359,
      "            ": 2360,
      "##Rome": 2361,
      "##OH": 2362,
      "          ": 2363,
      "    Whose ": 2364,
      "##def": 2365,
      "##rest ": 2366,
      "##if I ": 2367,
      "##Why, ": 2368,
      "##OHN": 2369,
      "##Fren": 2370,
      "##ve.\n": 2371,
      "##'d with ": 2372,
      "##vere": 2373,
      "##. Your ": 2374,
      "##. Do ": 2375,
      "##Majest": 2376,
      "##How ": 2377,
      "##rather ": 2378,
      "##poin": 2379,
      "##betwe": 2380,
      "##matter": 2381,
      "##your Gra": 2382,
      "##die ": 2383,
      "##young": 2384,
      "##low": 2385,
      "##weep": 2386,
      "    'Tis ": 2387,
      "##ance": 2388,
      "##. '": 2389,
      "##wilt ": 2390,
      "##side ": 2391,
      "##me to ": 2392,
      "##whom ": 2393,
      "##cons": 2394,
      "##. SCENE ": 2395,
      "    Nor ": 2396,
      "##erefore ": 2397,
      "##bloody ": 2398,
      "##false ": 2399,
      "##woo": 2400,
      "##pt ": 2401,
      "##born": 2402,
      "##DEM": 2403,
      "##ved ": 2404,
      "##erc": 2405,
      "##you,\n": 2406,
      "##you?\n": 2407,
      "##die": 2408,
      "##. Mar": 2409,
      "##head ": 2410,
      "##upon the ": 2411,
      "##ABEL": 2412,
      "##full": 2413,
      "##nature": 2414,
      "##les": 2415,
      "##ye ": 2416,
      "##bri": 2417,
      "##atter": 2418,
      "##. Is ": 2419,
      "##ence.\n": 2420,
      "##judg": 2421,
      "##same ": 2422,
      "##bir": 2423,
      "##Ju": 2424,
      "##Pro": 2425,
      "## mine ": 2426,
      "##los": 2427,
      "##well.\n": 2428,
      "##rince": 2429,
      "##grief": 2430,
      "##io": 2431,
      "##ken ": 2432,
      "##in their ": 2433,
      "  OL": 2434,
      "## man": 2435,
      "##fore, ": 2436,
      "    Are ": 2437,
      "##ried ": 2438,
      "##says ": 2439,
      "##kna": 2440,
      "##ry": 2441,
      "##kin": 2442,
      "##ZEN": 2443,
      "##to make ": 2444,
      "##lies ": 2445,
      "##fall ": 2446,
      "    O, ": 2447,
      "##TIZEN": 2448,
      "  Lear": 2449,
      "##d?\n": 2450,
      "##ge, ": 2451,
      "##cher": 2452,
      "  COR": 2453,
      "##ive me ": 2454,
      "##ROMIO": 2455,
      "##of her ": 2456,
      "##rew": 2457,
      "##not the ": 2458,
      "##not be ": 2459,
      "##enter": 2460,
      "##way": 2461,
      "##we have ": 2462,
      "##. Now, ": 2463,
      "    Hath ": 2464,
      "##That ": 2465,
      "##mou": 2466,
      "##wal": 2467,
      "##arwi": 2468,
      "##words ": 2469,
      "  SIR ": 2470,
      "  MEN": 2471,
      "##ABELLA": 2472,
      "##lam": 2473,
      "##of him": 2474,
      "## how ": 2475,
      "  Prince": 2476,
      "##no mor": 2477,
      "##present ": 2478,
      "  WARWICK": 2479,
      "##he's ": 2480,
      "##DI": 2481,
      "##va": 2482,
      "##ves": 2483,
      "##not to ": 2484,
      "##ELO": 2485,
      "##adam": 2486,
      "##cau": 2487,
      "    Not ": 2488,
      "##louces": 2489,
      "##happy ": 2490,
      "##GENTLEMAN": 2491,
      "##ROMIO OF ": 2492,
      "##tow": 2493,
      "##oth ": 2494,
      "##Ha": 2495,
      "    No ": 2496,
      "##i' th' ": 2497,
      "##e! ": 2498,
      "##near": 2499,
      "##I shall ": 2500,
      "##stu": 2501,
      "##why ": 2502,
      "##emp": 2503,
      "##They ": 2504,
      "##. Go ": 2505,
      "##gracious ": 2506,
      "##ship ": 2507,
      "##cat": 2508,
      "##suff": 2509,
      "  BA": 2510,
      "##fire": 2511,
      "##istres": 2512,
      "##sing ": 2513,
      "##GEN": 2514,
      "##k.\n": 2515,
      "##lie ": 2516,
      "##door": 2517,
      "  BO": 2518,
      "##fiel": 2519,
      "##. You": 2520,
      "##a man ": 2521,
      "##after": 2522,
      "##ian": 2523,
      "##repor": 2524,
      "##lish": 2525,
      "##ent\n": 2526,
      "##ent.\n": 2527,
      "##ne'er ": 2528,
      "##sovere": 2529,
      "##UCKING": 2530,
      "##TRUCH": 2531,
      "##great": 2532,
      "##banish": 2533,
      "##UCKINGHAM": 2534,
      "##TRUCHIO": 2535,
      "##uch ": 2536,
      "##GU": 2537,
      "##far ": 2538,
      "##ing,\n": 2539,
      "##alon": 2540,
      "##ONA": 2541,
      "  PAND": 2542,
      "##place ": 2543,
      "##beseech ": 2544,
      "##IOLAN": 2545,
      "ANTIPHOLUS OF ": 2546,
      "##dow": 2547,
      "##air": 2548,
      "##S\n": 2549,
      "##obe": 2550,
      "##fam": 2551,
      "##RAN": 2552,
      "##ve,\n": 2553,
      "##for his ": 2554,
      "##by my ": 2555,
      "##bod": 2556,
      "              ": 2557,
      "##UFFOLK": 2558,
      "##EB": 2559,
      "##I had ": 2560,
      "##quar": 2561,
      "    Do ": 2562,
      "##us,\n": 2563,
      "##k\n": 2564,
      "##If ": 2565,
      "##Warwi": 2566,
      "##, to ": 2567,
      "##enough": 2568,
      "##le,\n": 2569,
      "##such": 2570,
      "##for your ": 2571,
      "##out of ": 2572,
      "##. Why ": 2573,
      "##foll": 2574,
      "##help": 2575,
      "##I am": 2576,
      "  KATH": 2577,
      "##that's ": 2578,
      "##daughter ": 2579,
      "##rememb": 2580,
      "##gat": 2581,
      "##FORD": 2582,
      "##, as ": 2583,
      "##master ": 2584,
      "##Thou ": 2585,
      "##flow": 2586,
      "##brought ": 2587,
      "##therefore ": 2588,
      "##SERVANT": 2589,
      "##BO": 2590,
      "##JOHN": 2591,
      "##d of ": 2592,
      "##I was ": 2593,
      "##ceive ": 2594,
      "##show ": 2595,
      "##saw": 2596,
      "##spee": 2597,
      "##ck'd ": 2598,
      "##selves ": 2599,
      "##would have ": 2600,
      "##countr": 2601,
      "##bring ": 2602,
      "##CITIZEN": 2603,
      "##prof": 2604,
      "##UNT": 2605,
      "##din": 2606,
      "##dro": 2607,
      "##dare ": 2608,
      "##y-": 2609,
      "##on his ": 2610,
      "##eat": 2611,
      "##ARUS. ": 2612,
      "  PAR": 2613,
      "  HEL": 2614,
      "##EDWARD": 2615,
      "##thee.\n": 2616,
      "  VAL": 2617,
      "##together": 2618,
      "##IZ": 2619,
      "##three ": 2620,
      "## the\n": 2621,
      "##eat ": 2622,
      "##its ": 2623,
      "##laugh": 2624,
      "##ANO": 2625,
      "##ESAR": 2626,
      "##himself": 2627,
      "##justi": 2628,
      "##subj": 2629,
      "##Richar": 2630,
      "##ring ": 2631,
      "##ni": 2632,
      "##bour": 2633,
      "##Bru": 2634,
      "##RESS": 2635,
      "##under ": 2636,
      "##ORTI": 2637,
      "  CH": 2638,
      "##wall": 2639,
      "##serve ": 2640,
      "##mur": 2641,
      "##gall": 2642,
      "##ken": 2643,
      "##but": 2644,
      "##'red ": 2645,
      "  TIT": 2646,
      "##on\n": 2647,
      "## those ": 2648,
      "##it,\n": 2649,
      "##INA": 2650,
      "##worth": 2651,
      "##ESDEM": 2652,
      "##ELL": 2653,
      "  DESDEM": 2654,
      "SCENE II": 2655,
      "  DESDEMONA": 2656,
      "DROMIO OF ": 2657,
      "##. E": 2658,
      "##es;\n": 2659,
      "##I know": 2660,
      "##is.\n": 2661,
      "##last ": 2662,
      "##dog": 2663,
      "##. It is ": 2664,
      "##LOW": 2665,
      "##IDA": 2666,
      "##OWNE": 2667,
      "##full of ": 2668,
      "##RESSIDA": 2669,
      "##This ": 2670,
      "##h ": 2671,
      "##La": 2672,
      "        ": 2673,
      "##ince ": 2674,
      "  Rom": 2675,
      "##sick": 2676,
      "##doth": 2677,
      "##again ": 2678,
      "    More ": 2679,
      "                 ": 2680,
      "##pray": 2681,
      "##court": 2682,
      "##retch": 2683,
      "##.]\n": 2684,
      "##touch": 2685,
      "##vali": 2686,
      "##Her": 2687,
      "##d and ": 2688,
      "  PE": 2689,
      "##ALLOW": 2690,
      "##your\n": 2691,
      "  MENEN": 2692,
      "##tit": 2693,
      "##inst": 2694,
      "##inter": 2695,
      "##lose ": 2696,
      "##light ": 2697,
      "##England": 2698,
      "##royal ": 2699,
      "##child": 2700,
      "  MENENIUS. ": 2701,
      "##Glouces": 2702,
      "##Let ": 2703,
      "##, with ": 2704,
      "##in h": 2705,
      "##forth": 2706,
      "##. They ": 2707,
      "##yourself": 2708,
      "##TOB": 2709,
      "##abo": 2710,
      "##gold": 2711,
      "##wer": 2712,
      "##writ": 2713,
      "##Cap": 2714,
      "  \n": 2715,
      "##to this ": 2716,
      "##face ": 2717,
      "##spor": 2718,
      "##! W": 2719,
      "## thee, ": 2720,
      "##give me ": 2721,
      "##if thou ": 2722,
      "##appear": 2723,
      "    From ": 2724,
      "##KE": 2725,
      "##Ch": 2726,
      "##vel": 2727,
      "## most ": 2728,
      "##sister": 2729,
      "    She ": 2730,
      "##all my ": 2731,
      "##ROIL": 2732,
      "##we'll ": 2733,
      "    Even ": 2734,
      "  BEROWNE": 2735,
      "##fra": 2736,
      "##found ": 2737,
      "##batt": 2738,
      "##beh": 2739,
      "  PRO": 2740,
      "##et's ": 2741,
      "##grace ": 2742,
      "##. For": 2743,
      "##soul ": 2744,
      "##EPHES": 2745,
      "  PETRUCHIO": 2746,
      "##cow": 2747,
      "##try ": 2748,
      "##YM": 2749,
      "##lady ": 2750,
      "##reat ": 2751,
      "##would not ": 2752,
      "##. Be": 2753,
      "##IRD ": 2754,
      "  OLIV": 2755,
      "##rat": 2756,
      "##mper": 2757,
      "##ly\n": 2758,
      "##y and ": 2759,
      "##th and ": 2760,
      "##in our ": 2761,
      "##es of ": 2762,
      "##se of ": 2763,
      "##say, ": 2764,
      "##. Go": 2765,
      "##ture": 2766,
      "  THIRD ": 2767,
      "##strange ": 2768,
      "##gro": 2769,
      "##te ": 2770,
      "##burn": 2771,
      "    Now ": 2772,
      "##. My lord, ": 2773,
      "##return": 2774,
      "##ENTINE": 2775,
      "##I think": 2776,
      "##eir ": 2777,
      "##dge ": 2778,
      "##affec": 2779,
      "##learn": 2780,
      "##tro": 2781,
      "##best": 2782,
      "##'s\n": 2783,
      "##Par": 2784,
      "##bell": 2785,
      "##will I ": 2786,
      "    Then ": 2787,
      "##dead": 2788,
      "##twent": 2789,
      "##husband": 2790,
      "##TOBY": 2791,
      "##cal": 2792,
      "##'d and ": 2793,
      "    Sh": 2794,
      "##poor": 2795,
      "##mann": 2796,
      "##eye ": 2797,
      "##ISABELLA": 2798,
      "##traitor": 2799,
      "##light": 2800,
      "##sorrow": 2801,
      "##foul ": 2802,
      "    Like ": 2803,
      "  VALENTINE": 2804,
      "##tar": 2805,
      "##I must ": 2806,
      "##ing m": 2807,
      "##chee": 2808,
      "##, and the ": 2809,
      "##lost ": 2810,
      "##dem": 2811,
      "  CRESSIDA": 2812,
      "##rown ": 2813,
      "##tongue ": 2814,
      "##power ": 2815,
      "##hope ": 2816,
      "  PANDARUS. ": 2817,
      "##we are ": 2818,
      "##trump": 2819,
      "##dream": 2820,
      "##Tro": 2821,
      "##ep ": 2822,
      "##dru": 2823,
      "##us\n": 2824,
      "##x ": 2825,
      "##thine ": 2826,
      "##cho": 2827,
      "##ing to ": 2828,
      "##read ": 2829,
      "##. As ": 2830,
      "##. In": 2831,
      "##man, ": 2832,
      "  Fal": 2833,
      "##love": 2834,
      "    Did ": 2835,
      "  SIR TOBY": 2836,
      "##ORTIA": 2837,
      "##bas": 2838,
      "##ond ": 2839,
      "##and his ": 2840,
      "##with\n": 2841,
      "##new ": 2842,
      "##umber": 2843,
      "##let us ": 2844,
      "##exp": 2845,
      "##guil": 2846,
      "##again.\n": 2847,
      "##nature ": 2848,
      "##answer": 2849,
      "##ew ": 2850,
      "##d; ": 2851,
      "##cru": 2852,
      "##s in ": 2853,
      "##the King": 2854,
      "##chie": 2855,
      "##befor": 2856,
      "##las, ": 2857,
      "##save ": 2858,
      "##body ": 2859,
      "##. No ": 2860,
      "##thought ": 2861,
      "##counsel": 2862,
      "##PAGE": 2863,
      "##ion": 2864,
      "##ust ": 2865,
      "##plu": 2866,
      "##Nor": 2867,
      "##DO": 2868,
      "    Would ": 2869,
      "##have I ": 2870,
      "##resp": 2871,
      "##? S": 2872,
      "##both": 2873,
      "##play": 2874,
      "##friend ": 2875,
      "  ANTONIO": 2876,
      "  CORIOLAN": 2877,
      "  PROTE": 2878,
      "##ies ": 2879,
      "##Ar": 2880,
      "##Is ": 2881,
      "    [": 2882,
      "##in her ": 2883,
      "## thou": 2884,
      "## there ": 2885,
      "##for m": 2886,
      "##rish": 2887,
      "##edro": 2888,
      "##scar": 2889,
      "##charge ": 2890,
      "  MACBETH": 2891,
      "  HELENA": 2892,
      "##s-": 2893,
      "##k'd ": 2894,
      "##ffi": 2895,
      "##back ": 2896,
      "##'n": 2897,
      "##ery ": 2898,
      "##inf": 2899,
      "##ench": 2900,
      "##he hath ": 2901,
      "##but a ": 2902,
      "##love.\n": 2903,
      "##ILIA": 2904,
      "##let's ": 2905,
      "##quick": 2906,
      "##pala": 2907,
      "  PROTEUS. ": 2908,
      "##forth ": 2909,
      "##my good ": 2910,
      "##unto ": 2911,
      "##. An": 2912,
      "##do you ": 2913,
      "##we will ": 2914,
      "##. Ha": 2915,
      "##loves ": 2916,
      "    When": 2917,
      "    Come, ": 2918,
      "##. Who ": 2919,
      "##fles": 2920,
      "##strang": 2921,
      "  CORIOLANUS. ": 2922,
      "##cess": 2923,
      "##glor": 2924,
      "##.' ": 2925,
      "##Har": 2926,
      "    Re": 2927,
      "##another": 2928,
      "##till": 2929,
      "##E OF ": 2930,
      "##. Now ": 2931,
      "    Why ": 2932,
      "##ence,\n": 2933,
      "##house": 2934,
      "##soldier": 2935,
      "##ither": 2936,
      "##c'd ": 2937,
      "##In": 2938,
      "##fee": 2939,
      "##. U": 2940,
      "##st thou ": 2941,
      "##ong ": 2942,
      "##person": 2943,
      "    You": 2944,
      "##cover": 2945,
      "##ISTOL": 2946,
      "##pleasure": 2947,
      "##reng": 2948,
      "##IANA": 2949,
      "##b ": 2950,
      "##'t.\n": 2951,
      "##, or ": 2952,
      "##I know ": 2953,
      "##oft ": 2954,
      "##not a ": 2955,
      "##main": 2956,
      "##ce;\n": 2957,
      "                         ": 2958,
      "                      ": 2959,
      "##let him ": 2960,
      "##damn": 2961,
      "##wind": 2962,
      "##ses": 2963,
      "##farewell": 2964,
      "##en.\n": 2965,
      "##of their ": 2966,
      "##itself": 2967,
      "##sign": 2968,
      "##lau": 2969,
      "##whom": 2970,
      "                       ": 2971,
      "##she is ": 2972,
      "##if he ": 2973,
      "##talk ": 2974,
      "##attend": 2975,
      "##ire": 2976,
      "##cry ": 2977,
      "##fit ": 2978,
      "##have\n": 2979,
      "##ENOB": 2980,
      "    Some ": 2981,
      "##shall not ": 2982,
      "                          ": 2983,
      "  BUCKINGHAM": 2984,
      "##woman ": 2985,
      "##thinks ": 2986,
      "##ENOBAR": 2987,
      "##leg": 2988,
      "##with your ": 2989,
      "##. Be ": 2990,
      "##ILLE": 2991,
      "##OLLES. ": 2992,
      "##half": 2993,
      "##proud ": 2994,
      "##IMOGEN": 2995,
      "  PAROLLES. ": 2996,
      "##EPHESUS. ": 2997,
      "##bre": 2998,
      "  TR": 2999,
      "##I did ": 3000,
      "##ston": 3001,
      "##streng": 3002,
      "##been": 3003,
      "##time": 3004,
      "##ENTI": 3005,
      "##didst ": 3006,
      "    But, ": 3007,
      "  SUFFOLK": 3008,
      "## him.\n": 3009,
      "##ORLAND": 3010,
      "  SHALLOW": 3011,
      "  CASSIUS. ": 3012,
      "##. Marry, ": 3013,
      "##ist": 3014,
      "##rough ": 3015,
      "##SEN": 3016,
      "##s? ": 3017,
      "##ps ": 3018,
      "##fle": 3019,
      "    K": 3020,
      "##into the ": 3021,
      "##sever": 3022,
      "##it?\n": 3023,
      "    Were ": 3024,
      "##ENCE": 3025,
      "##reason ": 3026,
      "##are you ": 3027,
      "##thou hast ": 3028,
      "##here, ": 3029,
      "##appro": 3030,
      "##dead ": 3031,
      "##US\n": 3032,
      "##half ": 3033,
      "##myself ": 3034,
      "##wri": 3035,
      "##vow": 3036,
      "  U": 3037,
      "  Th": 3038,
      "##hich ": 3039,
      "##that the ": 3040,
      "##way, ": 3041,
      "##. Here ": 3042,
      "##heaven ": 3043,
      "##frien": 3044,
      "##death.\n": 3045,
      "  CAESAR": 3046,
      "##that\n": 3047,
      "##weal": 3048,
      "##IOLA": 3049,
      "##bow": 3050,
      "##Come, ": 3051,
      "##off ": 3052,
      "##sto": 3053,
      "##chol": 3054,
      "##spec": 3055,
      "##withal": 3056,
      "    O ": 3057,
      "    I will ": 3058,
      "##like the ": 3059,
      "##head": 3060,
      "##well, ": 3061,
      "##'d, and ": 3062,
      "##wife ": 3063,
      "## thank ": 3064,
      "##claim": 3065,
      "##believe ": 3066,
      "##Luci": 3067,
      "##men, ": 3068,
      "##cut ": 3069,
      "##s  \n": 3070,
      "##out\n": 3071,
      "##for thy ": 3072,
      "##issu": 3073,
      "  PORTIA": 3074,
      "  Bene": 3075,
      "##gods ": 3076,
      "  LAD": 3077,
      "##knows ": 3078,
      "##may be ": 3079,
      "##command": 3080,
      "##vanta": 3081,
      "##laudi": 3082,
      "##ORLANDO": 3083,
      "##t thou ": 3084,
      "  Pedro": 3085,
      "##while ": 3086,
      "##ROKE": 3087,
      "##goes ": 3088,
      "##break ": 3089,
      "##content": 3090,
      "##ENOBARB": 3091,
      "##a.\n": 3092,
      "##gone ": 3093,
      "##ke.\n": 3094,
      "##No, ": 3095,
      "##Coun": 3096,
      "##ine": 3097,
      "##rel": 3098,
      "##rever": 3099,
      "##recei": 3100,
      "##cks ": 3101,
      "##was a ": 3102,
      "##him\n": 3103,
      "##perf": 3104,
      "  King": 3105,
      "##. Come ": 3106,
      "  TROIL": 3107,
      "The ": 3108,
      "##ic": 3109,
      "##swa": 3110,
      "##there is ": 3111,
      "##I can ": 3112,
      "##wise ": 3113,
      "##de\n": 3114,
      "##OLDI": 3115,
      "##from my ": 3116,
      "  MESSENGER": 3117,
      "##warrant ": 3118,
      "               ": 3119,
      "                ": 3120,
      "##ence\n": 3121,
      "##trou": 3122,
      "  TROILUS. ": 3123,
      "##ious ": 3124,
      "##need ": 3125,
      "##lan": 3126,
      "##By ": 3127,
      "##any": 3128,
      "  ISABELLA": 3129,
      "##to be": 3130,
      "##eem": 3131,
      "##mad": 3132,
      "     W": 3133,
      "##. No": 3134,
      "##proc": 3135,
      "##. Madam": 3136,
      "##honest ": 3137,
      "##must be ": 3138,
      "##brave ": 3139,
      "##fortune ": 3140,
      "##ARGAR": 3141,
      "##danger": 3142,
      "##needs ": 3143,
      "##sat": 3144,
      "##GELO": 3145,
      "##fight ": 3146,
      "##FE": 3147,
      "##ze ": 3148,
      "##an h": 3149,
      "##I should ": 3150,
      "## me.\n": 3151,
      "##choo": 3152,
      "##requ": 3153,
      "##earth": 3154,
      "##you do ": 3155,
      "##almost ": 3156,
      "    Was ": 3157,
      "##cep": 3158,
      "##come.\n": 3159,
      "##. What's ": 3160,
      "##so much ": 3161,
      "##. In ": 3162,
      "##acc": 3163,
      "##umph": 3164,
      "##BURY": 3165,
      "  NOR": 3166,
      "##Aside]  ": 3167,
      "  LEON": 3168,
      "##istress ": 3169,
      "##care ": 3170,
      "##weet ": 3171,
      "##watch": 3172,
      "##est, ": 3173,
      "##each": 3174,
      "##to our ": 3175,
      "##to see ": 3176,
      "##state ": 3177,
      "## mo": 3178,
      "## make ": 3179,
      "##sai": 3180,
      "##. She ": 3181,
      "##mother ": 3182,
      "##swear ": 3183,
      "##got ": 3184,
      "  HOST": 3185,
      "##, I will ": 3186,
      "##favour": 3187,
      "##pity ": 3188,
      "##bal": 3189,
      "##BEL": 3190,
      "##DUK": 3191,
      "##in,\n": 3192,
      "##seen": 3193,
      "##sup": 3194,
      "##shall I ": 3195,
      "##age": 3196,
      "##aint ": 3197,
      "  MAL": 3198,
      "  Kent": 3199,
      "##excell": 3200,
      "##ught ": 3201,
      "##'st thou": 3202,
      "##beauty ": 3203,
      "##right": 3204,
      "##call'd ": 3205,
      "##John ": 3206,
      "  TITUS. ": 3207,
      "##mea": 3208,
      "##ush": 3209,
      "##pap": 3210,
      "##Claudi": 3211,
      "##ance, ": 3212,
      "##on,\n": 3213,
      "##wixt ": 3214,
      "## hou": 3215,
      "##laud": 3216,
      "##dire": 3217,
      "##ready ": 3218,
      "##shap": 3219,
      "    On": 3220,
      "##pois": 3221,
      "  SIC": 3222,
      "##ends ": 3223,
      "##himself ": 3224,
      "##TRAM": 3225,
      "##peace ": 3226,
      "##blood": 3227,
      "##lady": 3228,
      "##herefore ": 3229,
      "##consci": 3230,
      "##twenty ": 3231,
      "##e'er ": 3232,
      "##Mon": 3233,
      "##in that ": 3234,
      "##or, ": 3235,
      "  Claud": 3236,
      "    There ": 3237,
      "                        ": 3238,
      "##sir; ": 3239,
      "##love,\n": 3240,
      "    Con": 3241,
      "##cold ": 3242,
      "##ition ": 3243,
      "##seem ": 3244,
      "##igni": 3245,
      "## thee.\n": 3246,
      "##bly ": 3247,
      "##CUS. ": 3248,
      "##FRAN": 3249,
      "##LOR": 3250,
      "##to thy ": 3251,
      "##ERD": 3252,
      "##urse": 3253,
      "##ent,\n": 3254,
      "    Her ": 3255,
      "##selv": 3256,
      "##music": 3257,
      "  GR": 3258,
      "##PERO": 3259,
      "##OLDIER": 3260,
      "##ima": 3261,
      "##iel": 3262,
      "##wretch": 3263,
      "##fly ": 3264,
      "##OW": 3265,
      "##LAR": 3266,
      "##Po": 3267,
      "##. Enter ": 3268,
      "    Till ": 3269,
      "##ate": 3270,
      "##fashi": 3271,
      "##. I would ": 3272,
      "##OLPH": 3273,
      "##ELIA": 3274,
      "##ets ": 3275,
      "##ARDOLPH": 3276,
      "##break": 3277,
      "##when he ": 3278,
      "  VIOLA": 3279,
      "##ASTARD": 3280,
      "##Prince ": 3281,
      "##holy ": 3282,
      "##GUE": 3283,
      "  LEONTES. ": 3284,
      "##mind ": 3285,
      "##lin": 3286,
      "##oc": 3287,
      "##boun": 3288,
      "##'S ": 3289,
      "##HUM": 3290,
      "## think": 3291,
      "##you must ": 3292,
      "##lex": 3293,
      "##suc": 3294,
      "##supp": 3295,
      "  PISTOL": 3296,
      "##man.\n": 3297,
      "    May ": 3298,
      "##us?\n": 3299,
      "##gue ": 3300,
      "##upon my ": 3301,
      "##time\n": 3302,
      "##trem": 3303,
      "##born ": 3304,
      "##SE": 3305,
      "##s; and ": 3306,
      "##AU": 3307,
      "##fet": 3308,
      "  QU": 3309,
      "  ORLANDO": 3310,
      "##es; ": 3311,
      "##wil": 3312,
      "##amp": 3313,
      "##loy": 3314,
      "##dist": 3315,
      "##ESS OF ": 3316,
      "##thou shalt ": 3317,
      "##boy": 3318,
      "  Leon": 3319,
      "##known ": 3320,
      "##when I ": 3321,
      "##ardin": 3322,
      "##merc": 3323,
      "##. Sir, ": 3324,
      "##sovereign": 3325,
      "##ARGARET": 3326,
      "##roo": 3327,
      "##gin": 3328,
      "##fing": 3329,
      "##bound ": 3330,
      "##Cor": 3331,
      "##zen": 3332,
      "## think ": 3333,
      "##is my ": 3334,
      "##of that ": 3335,
      "##wis": 3336,
      "##force ": 3337,
      "##rag": 3338,
      "    Here ": 3339,
      "##her.\n": 3340,
      "##praise ": 3341,
      "##sword ": 3342,
      "##OMPE": 3343,
      "##Who ": 3344,
      "##ASTIAN": 3345,
      "##EBASTIAN": 3346,
      "  OLIVIA": 3347,
      "    Should ": 3348,
      "##even": 3349,
      "##t?\n": 3350,
      "##t, and ": 3351,
      "##sma": 3352,
      "##vol": 3353,
      "##instru": 3354,
      "  IMOGEN": 3355,
      "## mar": 3356,
      "##for\n": 3357,
      "##a good ": 3358,
      "    All ": 3359,
      "##rich": 3360,
      "##ANS. ": 3361,
      "##come": 3362,
      "    Though ": 3363,
      "##, I am ": 3364,
      "##they are ": 3365,
      "##counter": 3366,
      "  That ": 3367,
      "##ATOR": 3368,
      "##welcome ": 3369,
      "##ULIA": 3370,
      "##dest": 3371,
      "##s]\n": 3372,
      "##Mo": 3373,
      "## many ": 3374,
      "##sit ": 3375,
      "  SPE": 3376,
      "##blow": 3377,
      "  Glou": 3378,
      "##'d;\n": 3379,
      "##. Fa": 3380,
      "  LADY ": 3381,
      "  SICINIUS. ": 3382,
      "  SPEED": 3383,
      "##turn ": 3384,
      "##sy ": 3385,
      "##thri": 3386,
      "##. R": 3387,
      "##enough ": 3388,
      "## made ": 3389,
      "##liber": 3390,
      "##es and ": 3391,
      "##ce?\n": 3392,
      "##away": 3393,
      "##ETRI": 3394,
      "##Reg": 3395,
      "##night.\n": 3396,
      "  Jul": 3397,
      "  KATHER": 3398,
      "##ke,\n": 3399,
      "##'S": 3400,
      "    to ": 3401,
      "##ham": 3402,
      "##stom": 3403,
      "##; and, ": 3404,
      "##it was ": 3405,
      "##ent, ": 3406,
      "##next ": 3407,
      "##all.\n": 3408,
      "##ady ": 3409,
      "##ign ": 3410,
      "##certain": 3411,
      "  SECOND LORD": 3412,
      "##high ": 3413,
      "  CHAR": 3414,
      "##cros": 3415,
      "##uff": 3416,
      "##kno": 3417,
      "##feel": 3418,
      "##Your ": 3419,
      "##OP": 3420,
      "##!                ": 3421,
      "##ja": 3422,
      "##\"\n": 3423,
      "##, S": 3424,
      "##with her": 3425,
      "##old, ": 3426,
      "##resol": 3427,
      "##mark": 3428,
      "##l of ": 3429,
      "##charg": 3430,
      "##oath": 3431,
      "  BOY": 3432,
      "##ise": 3433,
      "##ding ": 3434,
      "##o's ": 3435,
      "##kill ": 3436,
      "##fres": 3437,
      "##Hec": 3438,
      "##arg": 3439,
      "##ea, ": 3440,
      "##be a ": 3441,
      "##be not ": 3442,
      "##your High": 3443,
      "##there's ": 3444,
      "##but the ": 3445,
      "  PROS": 3446,
      "##ts of ": 3447,
      "## him, ": 3448,
      "##exec": 3449,
      "##Exeunt.\n": 3450,
      "##base ": 3451,
      "  KING EDWARD": 3452,
      "##common ": 3453,
      "##too.\n": 3454,
      "##Queen ": 3455,
      "##change ": 3456,
      "##business ": 3457,
      "  LAUN": 3458,
      "##question": 3459,
      "  PROSPERO": 3460,
      "##want": 3461,
      "##pet": 3462,
      "##CAL": 3463,
      "##With": 3464,
      "##[S": 3465,
      "##ine, ": 3466,
      "##and a ": 3467,
      "##omp": 3468,
      "##chur": 3469,
      "##secon": 3470,
      "    At ": 3471,
      "##'d by ": 3472,
      "##all th": 3473,
      "##OLING": 3474,
      "##ELIZ": 3475,
      "##fie": 3476,
      "##trust ": 3477,
      "##cian": 3478,
      "##acqu": 3479,
      "  The ": 3480,
      "##father, ": 3481,
      "##ABETH": 3482,
      "##FEU": 3483,
      "##OLINGB": 3484,
      "##ELIZABETH": 3485,
      "##hom": 3486,
      "##near ": 3487,
      "##ling ": 3488,
      "##late ": 3489,
      "##t's ": 3490,
      "##town": 3491,
      "##Di": 3492,
      "## then ": 3493,
      "##ess.\n": 3494,
      "##ity.\n": 3495,
      "##as he ": 3496,
      "##const": 3497,
      "##ward": 3498,
      "  AU": 3499,
      "##ute ": 3500,
      "##. Yes, ": 3501,
      "##to-morrow": 3502,
      "##colour": 3503,
      "##general ": 3504,
      "##tender ": 3505,
      "##ENOBARBUS. ": 3506,
      "##satis": 3507,
      "##hun": 3508,
      "##ee ": 3509,
      "##my\n": 3510,
      "##drun": 3511,
      "  ENOBARBUS. ": 3512,
      "##hate": 3513,
      "##es?\n": 3514,
      "##ess, ": 3515,
      "##I pray ": 3516,
      "##red": 3517,
      "    Where": 3518,
      "##that you ": 3519,
      "##shame ": 3520,
      "##man's ": 3521,
      "##Enter the ": 3522,
      "##truth ": 3523,
      "##. For ": 3524,
      "##EMILIA": 3525,
      "##Why ": 3526,
      "##possi": 3527,
      "## thank": 3528,
      "  LUCIO": 3529,
      "  CASSIO": 3530,
      "##desire ": 3531,
      "##FRANCE": 3532,
      "##Tim": 3533,
      "##hur": 3534,
      "##ts, ": 3535,
      "##free ": 3536,
      "##PEM": 3537,
      "##s his ": 3538,
      "##ards ": 3539,
      "##for this ": 3540,
      "##lives ": 3541,
      "##lean": 3542,
      "##have you ": 3543,
      "##div": 3544,
      "##do, ": 3545,
      "##. I pray ": 3546,
      "##mean ": 3547,
      "##? What ": 3548,
      "    These ": 3549,
      "  SIL": 3550,
      "##from his ": 3551,
      "##go.\n": 3552,
      "##esseng": 3553,
      "##marri": 3554,
      "##prett": 3555,
      "##ield ": 3556,
      "## much ": 3557,
      "##Lord of ": 3558,
      "##LIFF": 3559,
      "  LUCIUS. ": 3560,
      "##PEMANT": 3561,
      "##dri": 3562,
      "##as\n": 3563,
      "##yet": 3564,
      "##wear ": 3565,
      "##k,\n": 3566,
      "##fit": 3567,
      "##'em": 3568,
      "##through": 3569,
      "  EMILIA": 3570,
      "##hair": 3571,
      "##to th' ": 3572,
      "##chance ": 3573,
      "##simp": 3574,
      "##. Will ": 3575,
      "  CELIA": 3576,
      "##. I do ": 3577,
      "                    ": 3578,
      "  Hor": 3579,
      "##God's ": 3580,
      "##MADO": 3581,
      "##tell me ": 3582,
      "##Caesar ": 3583,
      "##cene ": 3584,
      "  PAGE": 3585,
      "##Gloucester": 3586,
      "##Chri": 3587,
      "##moun": 3588,
      "##lend": 3589,
      "##Al": 3590,
      "##pay ": 3591,
      "##If": 3592,
      "##NE": 3593,
      "##EE": 3594,
      "##VOL": 3595,
      "##out.\n": 3596,
      "##ers.\n": 3597,
      "  ST": 3598,
      "##eni": 3599,
      "##ons ": 3600,
      "##is it ": 3601,
      "##ate, ": 3602,
      "##have a ": 3603,
      "##with thy ": 3604,
      "##ck\n": 3605,
      "##cking": 3606,
      "##bles": 3607,
      "##day.\n": 3608,
      "##given": 3609,
      "##. But, ": 3610,
      "##known": 3611,
      "##exc": 3612,
      "##Enter a ": 3613,
      "  Wh": 3614,
      "##breath": 3615,
      "##peace": 3616,
      "##friends ": 3617,
      "##chamber": 3618,
      "##joy ": 3619,
      "##house ": 3620,
      "  JULIA": 3621,
      "##I think ": 3622,
      "##strong ": 3623,
      "##Aside] ": 3624,
      "##deliver": 3625,
      "##speech": 3626,
      "##valiant ": 3627,
      "##ts": 3628,
      "##ts\n": 3629,
      "##figh": 3630,
      "##MUR": 3631,
      "       ": 3632,
      "##err": 3633,
      "##. K": 3634,
      "##are\n": 3635,
      "##ondon": 3636,
      "## though": 3637,
      "##to me ": 3638,
      "##ing h": 3639,
      "##seen ": 3640,
      "##rich ": 3641,
      "##bel": 3642,
      "##within": 3643,
      "    Since ": 3644,
      "    Their ": 3645,
      "     S": 3646,
      "  Beat": 3647,
      "    Ma": 3648,
      "##. Farewell": 3649,
      "##sworn": 3650,
      "##that, ": 3651,
      "##YMBEL": 3652,
      "##OMPEY": 3653,
      "##hu": 3654,
      "##ion ": 3655,
      "##ause ": 3656,
      "##what's ": 3657,
      "##It ": 3658,
      "##Mac": 3659,
      "##Will": 3660,
      "##jur": 3661,
      "##ste ": 3662,
      "##stop": 3663,
      "##lit": 3664,
      "##as you ": 3665,
      "##become ": 3666,
      "##ounds ": 3667,
      "##ble, ": 3668,
      "##so\n": 3669,
      "##gives ": 3670,
      "##swee": 3671,
      "##truth": 3672,
      "##flatter": 3673,
      "##'st thou ": 3674,
      "##yourself ": 3675,
      "  To ": 3676,
      "##will, ": 3677,
      "##ighty ": 3678,
      "##ETER": 3679,
      "##clou": 3680,
      "##thank": 3681,
      "##news ": 3682,
      "##wouldst ": 3683,
      "##OLINGBROKE": 3684,
      "##mel": 3685,
      "##dom ": 3686,
      "##lst ": 3687,
      "##ura": 3688,
      "##tal ": 3689,
      "##I may ": 3690,
      "##to do ": 3691,
      "    Against ": 3692,
      "##'d in ": 3693,
      "##'d me ": 3694,
      "##dies ": 3695,
      "##are the ": 3696,
      "    St": 3697,
      "##lord ": 3698,
      "##lead ": 3699,
      "##. Yet ": 3700,
      "##. Pray ": 3701,
      "  FIRST LORD": 3702,
      "##seek ": 3703,
      "##England ": 3704,
      "##fellow ": 3705,
      "##staff": 3706,
      "##madam, ": 3707,
      "##dost thou ": 3708,
      "##something ": 3709,
      "##. God ": 3710,
      "##ENTIO": 3711,
      "##ESS OF FRANCE": 3712,
      "##hoo": 3713,
      "##either ": 3714,
      "##deed": 3715,
      "##Ay, ": 3716,
      "##Do ": 3717,
      "##LAND": 3718,
      "##Ham": 3719,
      "##ine.\n": 3720,
      "##maid": 3721,
      "##. There's ": 3722,
      "     And ": 3723,
      "##RIAN": 3724,
      "##natura": 3725,
      "##certain ": 3726,
      "##.  [Aside]  ": 3727,
      "##faith, ": 3728,
      "  PRINCESS OF FRANCE": 3729,
      "##undred ": 3730,
      "##Henry ": 3731,
      "##whole ": 3732,
      "##Prote": 3733,
      "##harm": 3734,
      "##ying ": 3735,
      "##ker": 3736,
      "##IEL": 3737,
      "##four ": 3738,
      "##bb": 3739,
      "##be, ": 3740,
      "##VIA": 3741,
      "##thousand ": 3742,
      "##or\n": 3743,
      "##to her ": 3744,
      "## mor": 3745,
      "##you not ": 3746,
      "##ERM": 3747,
      "  But ": 3748,
      "##bosom": 3749,
      "    Make ": 3750,
      "##ICE": 3751,
      "##plain": 3752,
      "##now\n": 3753,
      "##honest": 3754,
      "##English ": 3755,
      "##beggar": 3756,
      "##spoke ": 3757,
      "##a thousand ": 3758,
      "  BERTRAM": 3759,
      "##. SCENE I.\n": 3760,
      "##.- ": 3761,
      "##SOLDIER": 3762,
      "##OUNT": 3763,
      "##Hel": 3764,
      "##. V": 3765,
      "##ary ": 3766,
      "##you h": 3767,
      "##and my ": 3768,
      "##hither ": 3769,
      "##ck.\n": 3770,
      "  COUNT": 3771,
      "    How": 3772,
      "##what is ": 3773,
      "##day, ": 3774,
      "##ecause ": 3775,
      "##will\n": 3776,
      "##will.\n": 3777,
      "##clu": 3778,
      "##looks ": 3779,
      "  ARMADO": 3780,
      "##black ": 3781,
      "  QUEEN ELIZABETH": 3782,
      "##reveng": 3783,
      "##queen": 3784,
      "  MRS. PAGE": 3785,
      "##French": 3786,
      "ANTIPHOLUS OF SYRACUSE": 3787,
      "##ignior ": 3788,
      "##LARENCE": 3789,
      "##ction ": 3790,
      "##want ": 3791,
      "##IT": 3792,
      "##Nay, ": 3793,
      "##brow": 3794,
      "##Da": 3795,
      "##ving": 3796,
      "    a ": 3797,
      "##of them": 3798,
      "##ing-": 3799,
      "##form ": 3800,
      "##limb": 3801,
      "##ity": 3802,
      "##with me ": 3803,
      "##rup": 3804,
      "  POMPEY": 3805,
      "    To be ": 3806,
      "  Hot": 3807,
      "##. When ": 3808,
      "##peak ": 3809,
      "##firm": 3810,
      "##could not ": 3811,
      "##world": 3812,
      "##dieu": 3813,
      "##Juli": 3814,
      "DROMIO OF SYRACUSE": 3815,
      "##palace\n": 3816,
      "##SENATOR": 3817,
      "##YMBELINE": 3818,
      "##et, ": 3819,
      "##evil": 3820,
      "##ner": 3821,
      "##Sha": 3822,
      "##soo": 3823,
      "##,' ": 3824,
      "##brie": 3825,
      "##youth": 3826,
      "##I cannot ": 3827,
      "##str": 3828,
      "##no, ": 3829,
      "    To": 3830,
      "##fore": 3831,
      "##loa": 3832,
      "##lover": 3833,
      "    It is ": 3834,
      "##conqu": 3835,
      "##shall have ": 3836,
      "    Therefore ": 3837,
      "  SEBASTIAN": 3838,
      "  BASTARD": 3839,
      "    Must ": 3840,
      "##ho, ": 3841,
      "##sweet": 3842,
      "  APEMANT": 3843,
      "##umb": 3844,
      "  DUCH": 3845,
      "##US, ": 3846,
      "##canst ": 3847,
      "## thou art ": 3848,
      "##hate ": 3849,
      "    Go ": 3850,
      "##spirit": 3851,
      "##REY": 3852,
      "##night, ": 3853,
      "##France ": 3854,
      "##wonder": 3855,
      "##service ": 3856,
      "  APEMANTUS. ": 3857,
      "##eter": 3858,
      "##ds, ": 3859,
      "##sound": 3860,
      "##pat": 3861,
      "##'a ": 3862,
      "##an\n": 3863,
      "##on thy ": 3864,
      "##you'll ": 3865,
      "##cely ": 3866,
      "##shar": 3867,
      "##neigh": 3868,
      "##. His ": 3869,
      "##vile ": 3870,
      "  FORD": 3871,
      "##know\n": 3872,
      "##more than ": 3873,
      "##ARDIN": 3874,
      "##life, ": 3875,
      "##things ": 3876,
      "##lords, ": 3877,
      "    Had ": 3878,
      "##ASTING": 3879,
      "  LAFEU": 3880,
      "  COUNTESS. ": 3881,
      "##ai": 3882,
      "##yield ": 3883,
      "##sit": 3884,
      "##Gre": 3885,
      "##pie": 3886,
      "##No": 3887,
      "##'t, ": 3888,
      "    that ": 3889,
      "## this": 3890,
      "##to have ": 3891,
      "##wit ": 3892,
      "##rip": 3893,
      "##bed": 3894,
      "##deb": 3895,
      "##. Tru": 3896,
      "##sad": 3897,
      "##ta'": 3898,
      "##shall we ": 3899,
      "##never": 3900,
      "##all\n": 3901,
      "##ask": 3902,
      "##am I ": 3903,
      "##love\n": 3904,
      "##indeed, ": 3905,
      "##but\n": 3906,
      "##draw ": 3907,
      "  Edg": 3908,
      "##contin": 3909,
      "##glad ": 3910,
      "##VOLIO": 3911,
      "##; h": 3912,
      "##book": 3913,
      "##Bu": 3914,
      "##Lo": 3915,
      "##Emper": 3916,
      "##, sir, ": 3917,
      "##one": 3918,
      "##at my ": 3919,
      "##not so ": 3920,
      "##you will ": 3921,
      "##'d my ": 3922,
      "##! S": 3923,
      "##! What ": 3924,
      "##by his ": 3925,
      "##would be ": 3926,
      "##sir,\n": 3927,
      "##beaut": 3928,
      "## heaven ": 3929,
      "##matter ": 3930,
      "##OSTHUM": 3931,
      "##UMBER": 3932,
      "##husband ": 3933,
      "  ALL": 3934,
      "  BASS": 3935,
      "##Good ": 3936,
      "##kep": 3937,
      "##CK": 3938,
      "##Do": 3939,
      "##MAR": 3940,
      "##MARGARET": 3941,
      "##Ear": 3942,
      "##s of the ": 3943,
      "##an, ": 3944,
      "##often ": 3945,
      "##ead": 3946,
      "##to me": 3947,
      "##to him": 3948,
      "##he that ": 3949,
      "##hither": 3950,
      "##; I'll ": 3951,
      "##she's ": 3952,
      "##ORTEN": 3953,
      "##worth ": 3954,
      "##worse ": 3955,
      "##THUMBER": 3956,
      "##ALIS": 3957,
      "     To ": 3958,
      "  BOLINGBROKE": 3959,
      "##soon ": 3960,
      "##ts and ": 3961,
      "##. Give me ": 3962,
      "##desire": 3963,
      "##scorn": 3964,
      "##away.\n": 3965,
      "##time, ": 3966,
      "##o'er ": 3967,
      "##speak.\n": 3968,
      "##. You are ": 3969,
      "  DUCHESS. ": 3970,
      "##ORTENS": 3971,
      "##hand, ": 3972,
      "##ele": 3973,
      "##dain": 3974,
      "##drown": 3975,
      "##deep ": 3976,
      "##cea": 3977,
      "##need": 3978,
      "##s-\n": 3979,
      "##AG": 3980,
      "##].\n": 3981,
      "    your ": 3982,
      "##one, ": 3983,
      "##wish ": 3984,
      "##se;\n": 3985,
      "##itself ": 3986,
      "##eed.\n": 3987,
      "##ARINE": 3988,
      "##ONE": 3989,
      "##de.\n": 3990,
      "##saw ": 3991,
      "##rest": 3992,
      "##heart.\n": 3993,
      "##ILLO": 3994,
      "##indeed ": 3995,
      "  KING JOHN": 3996,
      "##kingdom": 3997,
      "##God, ": 3998,
      "##. Pea": 3999,
      "##purpose ": 4000,
      "##Tal": 4001,
      "##tran": 4002,
      "##swif": 4003,
      "##; my ": 4004,
      "    Take ": 4005,
      "    And so ": 4006,
      "##have been ": 4007,
      "##whor": 4008,
      "##quali": 4009,
      "##here.\n": 4010,
      "##bold ": 4011,
      "##boy, ": 4012,
      "##. There is ": 4013,
      "##my lord,\n": 4014,
      "##opini": 4015,
      "##pleasure ": 4016,
      "##LYSS": 4017,
      "##letter ": 4018,
      "##join": 4019,
      "##power": 4020,
      "##'ring ": 4021,
      "##tyran": 4022,
      "##French ": 4023,
      "##between": 4024,
      "##THUMBERLAND": 4025,
      "##what": 4026,
      "##Fal": 4027,
      "##'n ": 4028,
      "##est\n": 4029,
      "##'d his ": 4030,
      "##diff": 4031,
      "##sper": 4032,
      "##with her ": 4033,
      "##neither ": 4034,
      "##OLY": 4035,
      "##OLSE": 4036,
      "    To make ": 4037,
      "##here?\n": 4038,
      "##loving ": 4039,
      "##heavy ": 4040,
      "    Com": 4041,
      "##gui": 4042,
      "##scal": 4043,
      "##see the ": 4044,
      "##fool ": 4045,
      "##prepar": 4046,
      "##thou, ": 4047,
      "##beat ": 4048,
      "##brain": 4049,
      "##return ": 4050,
      "##deny ": 4051,
      "##. Let me ": 4052,
      "##yet, ": 4053,
      "SCENE II.\n": 4054,
      "##flesh": 4055,
      "##hard ": 4056,
      "##a-": 4057,
      "##.] ": 4058,
      "##tin": 4059,
      "##wind ": 4060,
      "##In ": 4061,
      "##fol": 4062,
      "##Lady ": 4063,
      "##  [": 4064,
      "##thir": 4065,
      "    'T": 4066,
      "##esp": 4067,
      "##it;\n": 4068,
      "##as it ": 4069,
      "##sho": 4070,
      "##term": 4071,
      "  CAM": 4072,
      "##knee": 4073,
      "##il, ": 4074,
      "##by your ": 4075,
      "##morrow ": 4076,
      "##all but ": 4077,
      "##one that ": 4078,
      "##embra": 4079,
      "                  ": 4080,
      "  DEM": 4081,
      "##marry ": 4082,
      "##offen": 4083,
      "    Before ": 4084,
      "##US and ": 4085,
      "  DEMETRI": 4086,
      "##ger": 4087,
      "##gir": 4088,
      "##per ": 4089,
      "##ITES. ": 4090,
      "##Clar": 4091,
      "##DRIAN": 4092,
      "##thor": 4093,
      "##amb": 4094,
      "##sie": 4095,
      "    And that ": 4096,
      "##with you": 4097,
      "##up the ": 4098,
      "##by this ": 4099,
      "    One ": 4100,
      "##CHEE": 4101,
      "##ERSITES. ": 4102,
      "##common": 4103,
      "##seek": 4104,
      "##look'd ": 4105,
      "  Nurse": 4106,
      "##comfort ": 4107,
      "##Brut": 4108,
      "  TRANIO": 4109,
      "##GUECHEE": 4110,
      "##Hector": 4111,
      "##pretty ": 4112,
      "##GUECHEEK": 4113,
      "##hy": 4114,
      "##dm": 4115,
      "##deed ": 4116,
      "##aside": 4117,
      "##wra": 4118,
      "##Athen": 4119,
      "##patch": 4120,
      "##IS. ": 4121,
      "##fat": 4122,
      "##boo": 4123,
      "##YLO": 4124,
      "##MESSENGER": 4125,
      "##Mistress ": 4126,
      "##his\n": 4127,
      "##rah, ": 4128,
      "##unto the ": 4129,
      "##your Majest": 4130,
      "##de,\n": 4131,
      "##! I ": 4132,
      "##ck,\n": 4133,
      "##Exit.\n": 4134,
      "##usur": 4135,
      "##five ": 4136,
      "##p of ": 4137,
      "##ce, and ": 4138,
      "##lady, ": 4139,
      "##sleep ": 4140,
      "                            ": 4141,
      "  THERSITES. ": 4142,
      "##ness, ": 4143,
      "##sun ": 4144,
      "##further ": 4145,
      "##between ": 4146,
      "##side to ": 4147,
      "##mouth": 4148,
      "##ALISBURY": 4149,
      "##Talbo": 4150,
      "##YLOCK": 4151,
      "##hour ": 4152,
      "##home ": 4153,
      "##ed.\n": 4154,
      "##land, ": 4155,
      "##t-": 4156,
      "##over ": 4157,
      "##AS. ": 4158,
      "##anci": 4159,
      "##on's ": 4160,
      "## thus ": 4161,
      "##ded\n": 4162,
      "##. Well": 4163,
      "##ire ": 4164,
      "##our\n": 4165,
      "##more, ": 4166,
      "##her, ": 4167,
      "##so?\n": 4168,
      "##given ": 4169,
      "##weigh": 4170,
      "    Come ": 4171,
      "##take my ": 4172,
      "##past ": 4173,
      "##done, ": 4174,
      "##sworn ": 4175,
      "##. How now, ": 4176,
      "##cred": 4177,
      "##virtue ": 4178,
      "##occa": 4179,
      "  DEMETRIUS. ": 4180,
      "##effec": 4181,
      "##mind": 4182,
      "##s,  \n": 4183,
      "##As ": 4184,
      "##fell ": 4185,
      "##VIUS. ": 4186,
      "##PTI": 4187,
      "##, good ": 4188,
      "##ants ": 4189,
      "##have": 4190,
      "##ester": 4191,
      "##est.\n": 4192,
      "##you may ": 4193,
      "##sty ": 4194,
      "##stain": 4195,
      "##urg": 4196,
      "##last": 4197,
      "##on a ": 4198,
      "##shame": 4199,
      "##knew": 4200,
      "##ESCAL": 4201,
      "  Pol": 4202,
      "##. I know ": 4203,
      "##do I ": 4204,
      "##ted": 4205,
      "##soon": 4206,
      "##fill": 4207,
      "##action": 4208,
      "  AGUECHEEK": 4209,
      "##life,\n": 4210,
      "##bad ": 4211,
      "##just ": 4212,
      "    Good ": 4213,
      "##gentleman ": 4214,
      "##run ": 4215,
      "##kiss ": 4216,
      "  ANNE": 4217,
      "##chief": 4218,
      "##ORTENSIO": 4219,
      "##Tit": 4220,
      "##TOR": 4221,
      "##cir": 4222,
      "##ost": 4223,
      "##sland": 4224,
      "##ari": 4225,
      "##having ": 4226,
      "##youth ": 4227,
      "##secre": 4228,
      "##in to ": 4229,
      "##ERN": 4230,
      "    And yet ": 4231,
      "##ents ": 4232,
      "##ir\n": 4233,
      "##pose ": 4234,
      "## that I ": 4235,
      "##CHIMO": 4236,
      "##gover": 4237,
      "##lov'd ": 4238,
      "##now.\n": 4239,
      "##'d?\n": 4240,
      "##ignor": 4241,
      "##means ": 4242,
      "##against the ": 4243,
      "  EV": 4244,
      "##stands ": 4245,
      "##doubt ": 4246,
      "##glas": 4247,
      "##uncle ": 4248,
      "  QUEEN MARGARET": 4249,
      "##obedi": 4250,
      "  MALVOLIO": 4251,
      "##mid": 4252,
      "##oth": 4253,
      "##smi": 4254,
      "##sound ": 4255,
      "##GLOUCESTER": 4256,
      "##Gree": 4257,
      "##Cardin": 4258,
      "##JA": 4259,
      "## then": 4260,
      "## thousand ": 4261,
      "    An ": 4262,
      "##; 'tis ": 4263,
      "##lem": 4264,
      "##you were ": 4265,
      "##sid": 4266,
      "##that he ": 4267,
      "##ONST": 4268,
      "##sail": 4269,
      "##with this ": 4270,
      "##. Alas, ": 4271,
      "    There is ": 4272,
      "##. Have ": 4273,
      "##gif": 4274,
      "##advanta": 4275,
      "##true": 4276,
      "##dispos": 4277,
      "##let the ": 4278,
      "##. Where ": 4279,
      "##which is ": 4280,
      "##life.\n": 4281,
      "##I will not ": 4282,
      "    Pro": 4283,
      "##epher": 4284,
      "##begin": 4285,
      "##remember": 4286,
      "ACT II": 4287,
      "##enemi": 4288,
      "  MRS. FORD": 4289,
      "##ren ": 4290,
      "##mee": 4291,
      "##don ": 4292,
      "##low ": 4293,
      "##gros": 4294,
      "##Saint ": 4295,
      "##yp": 4296,
      "##yiel": 4297,
      "##o,\n": 4298,
      "##sbur": 4299,
      "##IX": 4300,
      "##OUCH": 4301,
      "##MED": 4302,
      "##jew": 4303,
      "##thi": 4304,
      "    have ": 4305,
      "##erv": 4306,
      "##inno": 4307,
      "  RO": 4308,
      "##ead ": 4309,
      "##stre": 4310,
      "##ity,\n": 4311,
      "##is't ": 4312,
      "##alread": 4313,
      "##lack ": 4314,
      "##rogu": 4315,
      "##m and ": 4316,
      "##on your ": 4317,
      "##. That's ": 4318,
      "##work": 4319,
      "##! H": 4320,
      "##cond": 4321,
      "##consi": 4322,
      "  LOR": 4323,
      "  HERM": 4324,
      "##, I have ": 4325,
      "##deri": 4326,
      "##broke ": 4327,
      "##pair ": 4328,
      "##       Exeunt\n": 4329,
      "##but, ": 4330,
      "##sword": 4331,
      "##death,\n": 4332,
      "##gentlemen": 4333,
      "##of these ": 4334,
      "##strike ": 4335,
      "##people ": 4336,
      "##ourable ": 4337,
      "##PTISTA": 4338,
      "  EVANS. ": 4339,
      "##OUCHST": 4340,
      "##ili": 4341,
      "##ast": 4342,
      "##ast ": 4343,
      "##sand": 4344,
      "##s.  \n": 4345,
      "##plo": 4346,
      "##No ": 4347,
      "##Con": 4348,
      "##MOR": 4349,
      "##'gainst ": 4350,
      "##inch": 4351,
      "## three ": 4352,
      "##you; ": 4353,
      "##of her": 4354,
      "##ala": 4355,
      "##al, ": 4356,
      "##come\n": 4357,
      "##dign": 4358,
      "##devi": 4359,
      "  COST": 4360,
      "##do.\n": 4361,
      "  PUC": 4362,
      "##age, ": 4363,
      "##impor": 4364,
      "##from h": 4365,
      "##white ": 4366,
      "##was the ": 4367,
      "##days ": 4368,
      "  MOTH": 4369,
      "##IOMED": 4370,
      "##a most ": 4371,
      "##of mine ": 4372,
      "## they are ": 4373,
      "##joy": 4374,
      "##lourish": 4375,
      "##hast thou ": 4376,
      "##horse ": 4377,
      "##Edwar": 4378,
      "##cousin ": 4379,
      "##affection": 4380,
      "##OLSEY": 4381,
      "  COSTARD": 4382,
      "A ": 4383,
      "##ed, ": 4384,
      "##dest ": 4385,
      "##duty ": 4386,
      "##awhi": 4387,
      "##less": 4388,
      "##ts,\n": 4389,
      "##For ": 4390,
      "##ant, ": 4391,
      "## there": 4392,
      "##eal ": 4393,
      "##your hand": 4394,
      "##entreat ": 4395,
      "    Than": 4396,
      "     That ": 4397,
      "    Or": 4398,
      "  SERVANT": 4399,
      "##all his ": 4400,
      "##bless ": 4401,
      "##ted, ": 4402,
      "##teous ": 4403,
      "##us' ": 4404,
      "##. Most ": 4405,
      "  AG": 4406,
      "##heal": 4407,
      "##open": 4408,
      "##King's ": 4409,
      "##blood,\n": 4410,
      "##When ": 4411,
      "##ICKLY": 4412,
      "##woman's ": 4413,
      "##devil ": 4414,
      "##further": 4415,
      "  ANGELO": 4416,
      "  KATHERINA": 4417,
      "##uffol": 4418,
      "##second ": 4419,
      "Scene ": 4420,
      "##ied ": 4421,
      "##cun": 4422,
      "##ling": 4423,
      "##teach": 4424,
      "##som ": 4425,
      "##FOLK": 4426,
      "##vell": 4427,
      "##UST": 4428,
      "##ous, ": 4429,
      "##ine,\n": 4430,
      "##ark": 4431,
      "##sem": 4432,
      "##hide ": 4433,
      "##is'd ": 4434,
      "##it not ": 4435,
      "##ties ": 4436,
      "##sad ": 4437,
      "  CYMBELINE": 4438,
      "##. An ": 4439,
      "##ES\n": 4440,
      "##lord.\n": 4441,
      "##ted\n": 4442,
      "##him,\n": 4443,
      "##. Our ": 4444,
      "##well-": 4445,
      "##. Go, ": 4446,
      "##priv": 4447,
      "##MAC": 4448,
      "##pp'd ": 4449,
      "##sorrow ": 4450,
      "##pass ": 4451,
      "##attend ": 4452,
      "##enedi": 4453,
      "##child ": 4454,
      "##toward ": 4455,
      "##follow ": 4456,
      "##acquain": 4457,
      "##differ": 4458,
      "##rou": 4459,
      "##ning": 4460,
      "##aff": 4461,
      "##ly,\n": 4462,
      "##ture ": 4463,
      "##Iag": 4464,
      "##bun": 4465,
      "##Bri": 4466,
      "##Val": 4467,
      "    of ": 4468,
      "##, B": 4469,
      "##an hon": 4470,
      "## thine ": 4471,
      "##I could ": 4472,
      "##reg": 4473,
      "##labour": 4474,
      "    What, ": 4475,
      "##shepher": 4476,
      "##ALBO": 4477,
      "##all this ": 4478,
      "##viol": 4479,
      "##sir?\n": 4480,
      "  A ": 4481,
      "##cast ": 4482,
      "    Now, ": 4483,
      "##if it ": 4484,
      "##prai": 4485,
      "##servan": 4486,
      "##done.\n": 4487,
      "##night\n": 4488,
      "##KING ": 4489,
      "##pub": 4490,
      "##servant ": 4491,
      "##respec": 4492,
      "  ULYSS": 4493,
      "##circ": 4494,
      "ADRIAN": 4495,
      "##e'": 4496,
      "##eli": 4497,
      "##ad ": 4498,
      "##ach ": 4499,
      "##air ": 4500,
      "##sent": 4501,
      "##; that ": 4502,
      "##GA": 4503,
      "##fru": 4504,
      "##NIA": 4505,
      "##bour ": 4506,
      "##DUFF": 4507,
      "##Rome ": 4508,
      "##LUC": 4509,
      "##arch": 4510,
      "##chill": 4511,
      "##nother ": 4512,
      "##riar": 4513,
      "##be.\n": 4514,
      "##be gon": 4515,
      "    And make ": 4516,
      "##k and ": 4517,
      "##died ": 4518,
      "##demon": 4519,
      "##will you ": 4520,
      "##worship": 4521,
      "##takes ": 4522,
      "    Such ": 4523,
      "  FLU": 4524,
      "##know the ": 4525,
      "##ISH": 4526,
      "##breath ": 4527,
      "##ble.\n": 4528,
      "##tell you ": 4529,
      "##thee,\n": 4530,
      "##grand": 4531,
      "##false": 4532,
      "  SHYLOCK": 4533,
      "##Edward ": 4534,
      "##entertain": 4535,
      "##. Madam, ": 4536,
      "  LADY MAC": 4537,
      "  BOYET": 4538,
      "##Willi": 4539,
      "  ULYSSES. ": 4540,
      "ADRIANA": 4541,
      "## [": 4542,
      "##ed\n": 4543,
      "##deep": 4544,
      "##lun": 4545,
      "##ue ": 4546,
      "##twi": 4547,
      "##tom": 4548,
      "##tur": 4549,
      "##t! ": 4550,
      "##o\n": 4551,
      "##s't ": 4552,
      "##MIAN": 4553,
      "##Leon": 4554,
      "##thyself": 4555,
      "##s with ": 4556,
      "##anca": 4557,
      "  ESCAL": 4558,
      "##es!\n": 4559,
      "##ess\n": 4560,
      "##you the ": 4561,
      "##I love ": 4562,
      "##remo": 4563,
      "##sick ": 4564,
      "##your lord": 4565,
      "##dep": 4566,
      "##decei": 4567,
      "##work ": 4568,
      "##we shall ": 4569,
      "##. How": 4570,
      "##what a ": 4571,
      "##appar": 4572,
      "##true, ": 4573,
      "##proph": 4574,
      "##'twas ": 4575,
      "##'twere ": 4576,
      "##guar": 4577,
      "  WOLSEY": 4578,
      "##just": 4579,
      "##OMERS": 4580,
      "##when the ": 4581,
      "##RATI": 4582,
      "##Marci": 4583,
      "##night,\n": 4584,
      "##groun": 4585,
      "  Edm": 4586,
      "##.  [To ": 4587,
      "##help ": 4588,
      "##spirit ": 4589,
      "  MARIA": 4590,
      "##morrow, ": 4591,
      "##drum": 4592,
      "## house\n": 4593,
      "##TER": 4594,
      "##met ": 4595,
      "##cti": 4596,
      "##crown ": 4597,
      "##uc": 4598,
      "##ub": 4599,
      "##went ": 4600,
      "##Bo": 4601,
      "##Bea": 4602,
      "##EX": 4603,
      "    my ": 4604,
      "##s me ": 4605,
      "##er's ": 4606,
      "##arri": 4607,
      "##chan": 4608,
      "## how": 4609,
      "##see, ": 4610,
      "    That, ": 4611,
      "##of all ": 4612,
      "##earth ": 4613,
      "##ity\n": 4614,
      "##bed ": 4615,
      "##because ": 4616,
      "##lack": 4617,
      "##olph": 4618,
      "  CLARENCE": 4619,
      "##up\n": 4620,
      "  POSTHUM": 4621,
      "##what I ": 4622,
      "##day,\n": 4623,
      "##      [": 4624,
      "##. There ": 4625,
      "##ttend": 4626,
      "##again,\n": 4627,
      "##ISANIO": 4628,
      "##ish'd ": 4629,
      "##itizen": 4630,
      "##ation\n": 4631,
      "##good\n": 4632,
      "##my lord?\n": 4633,
      "##. [Aside] ": 4634,
      "##understand ": 4635,
      "##grief ": 4636,
      "  IACHIMO": 4637,
      "##Sir John": 4638,
      "##above ": 4639,
      "##argum": 4640,
      "##Christi": 4641,
      "##MURDER": 4642,
      "  ESCALUS. ": 4643,
      "##heel": 4644,
      "##ry.\n": 4645,
      "##aw": 4646,
      "##grant ": 4647,
      "##Go ": 4648,
      "##Aside to ": 4649,
      "##BY": 4650,
      "##Des": 4651,
      "##jeal": 4652,
      "##on this ": 4653,
      "##is your ": 4654,
      "##stir": 4655,
      "##at\n": 4656,
      "##ator": 4657,
      "##you and ": 4658,
      "##es the ": 4659,
      "##til": 4660,
      "##ARL": 4661,
      "##fast ": 4662,
      "##say\n": 4663,
      "##uph": 4664,
      "##necess": 4665,
      "##all, ": 4666,
      "    On ": 4667,
      "##bless": 4668,
      "##ask ": 4669,
      "##day\n": 4670,
      "##us!\n": 4671,
      "##adm": 4672,
      "##out the ": 4673,
      "##knowle": 4674,
      "##Then ": 4675,
      "    Can ": 4676,
      "##indeed": 4677,
      "##take the ": 4678,
      "##Roman": 4679,
      "  CLOTEN": 4680,
      "##Fortun": 4681,
      "##ELLEN": 4682,
      "##golden ": 4683,
      "##OUCHSTONE": 4684,
      "  POSTHUMUS. ": 4685,
      "##he\n": 4686,
      "##ding": 4687,
      "##Suffol": 4688,
      "##tly ": 4689,
      "##og": 4690,
      "##sof": 4691,
      "##pun": 4692,
      "##foun": 4693,
      "##LEN": 4694,
      "##I not ": 4695,
      "##wick": 4696,
      "## mon": 4697,
      "##laid ": 4698,
      "##die.\n": 4699,
      "  CONST": 4700,
      "##me?\n": 4701,
      "##ally ": 4702,
      "##age.\n": 4703,
      "##heart\n": 4704,
      "##son, ": 4705,
      "##cast": 4706,
      "##upon his ": 4707,
      "##say '": 4708,
      "##bast": 4709,
      "##foot ": 4710,
      "##married ": 4711,
      "##thoughts ": 4712,
      "##father.\n": 4713,
      "##course ": 4714,
      "##brother's ": 4715,
      "##grow ": 4716,
      "  JA": 4717,
      "    Being ": 4718,
      "##execu": 4719,
      "##OMERSET": 4720,
      "##me, and ": 4721,
      "##az": 4722,
      "##lest ": 4723,
      "##gam": 4724,
      "##Sil": 4725,
      "##treason": 4726,
      "##od": 4727,
      "##wing": 4728,
      "##soun": 4729,
      "##Or": 4730,
      "##Lanca": 4731,
      "##Ja": 4732,
      "##hadst ": 4733,
      "##at your ": 4734,
      "##be the ": 4735,
      "##entle": 4736,
      "##comb": 4737,
      "##dig": 4738,
      "##lord,\n": 4739,
      "    There's ": 4740,
      "##this is ": 4741,
      "##boy ": 4742,
      "    I would ": 4743,
      "##view": 4744,
      "  ACH": 4745,
      "##had been ": 4746,
      "##frigh": 4747,
      "##done": 4748,
      "##     [": 4749,
      "  TOUCHSTONE": 4750,
      "##ANDER": 4751,
      "##buy ": 4752,
      "##beast": 4753,
      "##hands ": 4754,
      "##phy": 4755,
      "##ation.\n": 4756,
      "  FIRST GENTLEMAN": 4757,
      "##pursu": 4758,
      "##carri": 4759,
      "##. You have ": 4760,
      "##tears ": 4761,
      "##Rosal": 4762,
      "##general": 4763,
      "##drink ": 4764,
      "##suffer": 4765,
      "##courtes": 4766,
      "##Bucking": 4767,
      "##ISHOP": 4768,
      "##RATIANO": 4769,
      "##coura": 4770,
      "##use": 4771,
      "##yon": 4772,
      "##o?\n": 4773,
      "##wench": 4774,
      "##p, ": 4775,
      "##fight": 4776,
      "##Jew": 4777,
      "    Ex": 4778,
      "##er of ": 4779,
      "##sting": 4780,
      "## men ": 4781,
      "##nobl": 4782,
      "##le-": 4783,
      "##time,\n": 4784,
      "##ced ": 4785,
      "##shake ": 4786,
      "##sav": 4787,
      "##knew ": 4788,
      "##conclu": 4789,
      "##do\n": 4790,
      "##victor": 4791,
      "##so,\n": 4792,
      "##hot ": 4793,
      "##gold ": 4794,
      "    Why, ": 4795,
      "## thou hast ": 4796,
      "##ously ": 4797,
      "##life": 4798,
      "##life\n": 4799,
      "##affair": 4800,
      "##English": 4801,
      "##princely ": 4802,
      "##water ": 4803,
      "##safet": 4804,
      "##cousin": 4805,
      "##your Grace ": 4806,
      "##Brutu": 4807,
      "SCENE III.\n": 4808,
      "##cheek": 4809,
      "##Troil": 4810,
      "##ILLES. ": 4811,
      "  BASSANIO": 4812,
      "##innoc": 4813,
      "##MURDERER": 4814,
      "  ACHILLES. ": 4815,
      "##SH": 4816,
      "##SIR ": 4817,
      "##t; ": 4818,
      "##ts.\n": 4819,
      "##s'": 4820,
      "##De": 4821,
      "##We ": 4822,
      "##Eg": 4823,
      "##er than": 4824,
      "  Reg": 4825,
      "##is this ": 4826,
      "##noble": 4827,
      "##sec": 4828,
      "##leep": 4829,
      "##rather": 4830,
      "##not my ": 4831,
      "##. Take ": 4832,
      "##? H": 4833,
      "##all,\n": 4834,
      "##ass": 4835,
      "##truly ": 4836,
      "##provi": 4837,
      "##est,\n": 4838,
      "##if the ": 4839,
      "##ETTA": 4840,
      "##too much ": 4841,
      "##triumph": 4842,
      "##UTOLY": 4843,
      "##IDER": 4844,
      "##passion": 4845,
      "##mber ": 4846,
      "##UMIO": 4847,
      "##ticul": 4848,
      "##smil": 4849,
      "ANTIPHOLUS OF EPHESUS. ": 4850,
      "##Richard ": 4851,
      "##Within": 4852,
      "##Macbe": 4853,
      "##Earl of ": 4854,
      "  CAMILLO": 4855,
      "##dden": 4856,
      "##nur": 4857,
      "##aun": 4858,
      "##ge.\n": 4859,
      "##ting": 4860,
      "##Come ": 4861,
      "    his ": 4862,
      "    En": 4863,
      "##omer": 4864,
      "##stol": 4865,
      "##ladi": 4866,
      "##ARON": 4867,
      "##sham": 4868,
      "##. All": 4869,
      "##. All ": 4870,
      "##ours ": 4871,
      "##? A": 4872,
      "     The ": 4873,
      "##ted.\n": 4874,
      "##what you ": 4875,
      "    Me": 4876,
      "  HORTENSIO": 4877,
      "##eyes,\n": 4878,
      "## himself": 4879,
      "##fire ": 4880,
      "##   [": 4881,
      "##took ": 4882,
      "    Give ": 4883,
      "##money ": 4884,
      "  VOL": 4885,
      "##royal": 4886,
      "##together ": 4887,
      "  PRINCE": 4888,
      "##kind of ": 4889,
      "##fully ": 4890,
      "##remember ": 4891,
      "##several ": 4892,
      "##kept ": 4893,
      "##ALBOT": 4894,
      "##horn": 4895,
      "##im ": 4896,
      "##mour": 4897,
      "##aer": 4898,
      "##So ": 4899,
      "##Sir": 4900,
      "##s:\n": 4901,
      "##; this ": 4902,
      "##Achill": 4903,
      "##by\n": 4904,
      "    V": 4905,
      "##. 'T": 4906,
      "##order": 4907,
      "##stood ": 4908,
      "##stab": 4909,
      "## man ": 4910,
      "## hand": 4911,
      "##a little ": 4912,
      "##revol": 4913,
      "##of Fran": 4914,
      "##is,\n": 4915,
      "##amor": 4916,
      "##that is ": 4917,
      "##. At ": 4918,
      "##ight.\n": 4919,
      "     Th": 4920,
      "##more": 4921,
      "##bott": 4922,
      "##. Shall ": 4923,
      "##mock": 4924,
      "    Most ": 4925,
      "##host": 4926,
      "##. Ma": 4927,
      "##dead.\n": 4928,
      "##. Thy ": 4929,
      "##uten": 4930,
      "##tten ": 4931,
      "##pleas": 4932,
      "##art thou ": 4933,
      "##bled ": 4934,
      "##not?\n": 4935,
      "##. [To ": 4936,
      "##Exeunt all but ": 4937,
      "##; therefore ": 4938,
      "##confess ": 4939,
      "##judgment": 4940,
      "##country": 4941,
      "##choi": 4942,
      "    [To ": 4943,
      "##. Faith": 4944,
      "##church": 4945,
      "##Dauph": 4946,
      "##Tow": 4947,
      "##hence ": 4948,
      "##ether ": 4949,
      "##ily ": 4950,
      "##mil": 4951,
      "##dow ": 4952,
      "##Not ": 4953,
      "##Read": 4954,
      "##!'\n": 4955,
      "##Hor": 4956,
      "##JUST": 4957,
      "##    [": 4958,
      "##ouch ": 4959,
      "##anchol": 4960,
      "##you;\n": 4961,
      "##you hear": 4962,
      "##and un": 4963,
      "##I were ": 4964,
      "##wild ": 4965,
      "##stro": 4966,
      "##steal": 4967,
      "##see\n": 4968,
      "##forgo": 4969,
      "##hither, ": 4970,
      "##law ": 4971,
      "##entrea": 4972,
      "    Bet": 4973,
      "##by a ": 4974,
      "##age,\n": 4975,
      "##. Here, ": 4976,
      "##heart, ": 4977,
      "##lease ": 4978,
      "##persu": 4979,
      "##; and the ": 4980,
      "  HASTING": 4981,
      "##. These ": 4982,
      "##king.\n": 4983,
      "##beau": 4984,
      "##took": 4985,
      "##ardolph": 4986,
      "##seal": 4987,
      "  SECOND GENTLEMAN": 4988,
      "##weap": 4989,
      "SCENE V": 4990,
      "    Let me ": 4991,
      "##EPHANO": 4992,
      "##goodly ": 4993,
      "##shouldst ": 4994,
      "##approach": 4995,
      "  NORTHUMBERLAND": 4996,
      "  QUICKLY": 4997,
      "##small ": 4998,
      "##LIFFORD": 4999,
      "##LENDER": 5000,
      "##he, ": 5001,
      "##equ": 5002,
      "##number": 5003,
      "##a,\n": 5004,
      "##ather": 5005,
      "##gran": 5006,
      "##uil": 5007,
      "##yond ": 5008,
      "##oin": 5009,
      "##fer": 5010,
      "##bol": 5011,
      "##!' ": 5012,
      "##vise ": 5013,
      "##VIR": 5014,
      "##, for ": 5015,
      "##ank": 5016,
      "  Queen": 5017,
      "## ther": 5018,
      "##hap": 5019,
      "##is this": 5020,
      "##I see ": 5021,
      "##not,\n": 5022,
      "##a c": 5023,
      "##at his ": 5024,
      "##he was ": 5025,
      "    We'll ": 5026,
      "##s, the ": 5027,
      "##sudden": 5028,
      "##ed with ": 5029,
      "  COM": 5030,
      "##knight": 5031,
      "##. Ah, ": 5032,
      "##ways ": 5033,
      "##ESS ": 5034,
      "##so much": 5035,
      "    Out ": 5036,
      "##. Sweet ": 5037,
      "    I do ": 5038,
      "##particul": 5039,
      "##war ": 5040,
      "##eyes\n": 5041,
      "##let them ": 5042,
      "##should have ": 5043,
      "##angu": 5044,
      "##hath been ": 5045,
      "##scor": 5046,
      "##EMN": 5047,
      "##EMIO": 5048,
      "##country ": 5049,
      "##       [": 5050,
      "##arms ": 5051,
      "##art thou": 5052,
      "##. Pri": 5053,
      "##them.\n": 5054,
      "##carry ": 5055,
      "##stay": 5056,
      "##slaugh": 5057,
      "##larum": 5058,
      "##dden ": 5059,
      "##walk ": 5060,
      "  BAPTISTA": 5061,
      "##remembran": 5062,
      "##write ": 5063,
      "##. Before ": 5064,
      "##excellent ": 5065,
      "  LAUNCE": 5066,
      "##Valent": 5067,
      "  FLUELLEN": 5068,
      "##hard": 5069,
      "##t!\n": 5070,
      "##tless ": 5071,
      "##yra": 5072,
      "##Attend": 5073,
      "##It is ": 5074,
      "##I thank ": 5075,
      "##four": 5076,
      "##You": 5077,
      "##F ": 5078,
      "##s have ": 5079,
      "##, thou ": 5080,
      "##ine\n": 5081,
      "##ord ": 5082,
      "##o and ": 5083,
      "##oni": 5084,
      "##for that ": 5085,
      "##live": 5086,
      "##of it": 5087,
      "    Al": 5088,
      "##leis": 5089,
      "##ited ": 5090,
      "##raw": 5091,
      "##six": 5092,
      "##mad ": 5093,
      "##dic": 5094,
      "##say.\n": 5095,
      "##vers": 5096,
      "##oling": 5097,
      "    Because ": 5098,
      "    Thus ": 5099,
      "##OLIX": 5100,
      "  Friar": 5101,
      "##utter": 5102,
      "## him\n": 5103,
      "  GRATIANO": 5104,
      "##grave ": 5105,
      "##AMEMN": 5106,
      "##time.\n": 5107,
      "##men's ": 5108,
      "##poss": 5109,
      "##subst": 5110,
      "    Unless ": 5111,
      "##IV.\n": 5112,
      "##witness ": 5113,
      "##ULINA": 5114,
      "    Upon the ": 5115,
      "##cheer": 5116,
      "                       Enter ": 5117,
      "##'S house\n": 5118,
      "##blessed ": 5119,
      "##OLIXEN": 5120,
      "##AMEMNON": 5121,
      "##dur": 5122,
      "##dut": 5123,
      "##coul": 5124,
      "##city ": 5125,
      "##aid ": 5126,
      "##gri": 5127,
      "##garm": 5128,
      "##tent": 5129,
      "##ty, ": 5130,
      "##IP": 5131,
      "##bid": 5132,
      "##vouch": 5133,
      "##Mor": 5134,
      "##er than ": 5135,
      "##iness ": 5136,
      "##enc": 5137,
      "##stoo": 5138,
      "##like": 5139,
      "##; if ": 5140,
      "##it were ": 5141,
      "##roar": 5142,
      "##tire": 5143,
      "##an un": 5144,
      "##sul": 5145,
      "##. Well ": 5146,
      "##with him ": 5147,
      "##wash": 5148,
      "##ds and ": 5149,
      "##go, ": 5150,
      "##abro": 5151,
      "  Al": 5152,
      "## me to ": 5153,
      "##give thee ": 5154,
      "##women ": 5155,
      "##ABIAN": 5156,
      "##cle, ": 5157,
      "##King.\n": 5158,
      "##And": 5159,
      "##time to ": 5160,
      "##. He is ": 5161,
      "## mean": 5162,
      "##UMNIA": 5163,
      "##shall\n": 5164,
      "##Ros": 5165,
      "  ROSALINE": 5166,
      "##officer": 5167,
      "##counterfe": 5168,
      "  HASTINGS. ": 5169,
      "##ie, ": 5170,
      "##rend": 5171,
      "##dread": 5172,
      "##catch": 5173,
      "##ger ": 5174,
      "##ty.\n": 5175,
      "##ybal": 5176,
      "##ollow": 5177,
      "##wee": 5178,
      "##s- ": 5179,
      "##IGO": 5180,
      "##frown": 5181,
      "##Now ": 5182,
      "##REN": 5183,
      "##vain": 5184,
      "##URI": 5185,
      "##ers,\n": 5186,
      "##en's ": 5187,
      "##have, ": 5188,
      "##you, and ": 5189,
      "##I be ": 5190,
      "##of.\n": 5191,
      "##noise ": 5192,
      "##at a ": 5193,
      "##atten": 5194,
      "##among": 5195,
      "##as thou ": 5196,
      "##lay": 5197,
      "##mali": 5198,
      "    And then ": 5199,
      "##an old ": 5200,
      "##ded": 5201,
      "##. Would ": 5202,
      "##. With ": 5203,
      "##spur": 5204,
      "##. Are ": 5205,
      "##contemp": 5206,
      "  PROV": 5207,
      "##. St": 5208,
      "##solem": 5209,
      "  For ": 5210,
      "##prot": 5211,
      "  AUTOLY": 5212,
      "## he is ": 5213,
      "##ECTOR": 5214,
      "##ster, ": 5215,
      "    Dis": 5216,
      "##speaks ": 5217,
      "##IANCA": 5218,
      "##BERT": 5219,
      "##Roman ": 5220,
      "##brother, ": 5221,
      "##. This is ": 5222,
      "##name of ": 5223,
      "##ness\n": 5224,
      "                     1": 5225,
      "##York": 5226,
      "##author": 5227,
      "                         Enter ": 5228,
      "                      Enter ": 5229,
      "##dangerous ": 5230,
      "##choose ": 5231,
      "##said, ": 5232,
      "##fetch": 5233,
      "##JAX": 5234,
      "  COMINIUS. ": 5235,
      "  PROVOST": 5236,
      "London": 5237,
      "TH": 5238,
      "##n'd ": 5239,
      "##Somer": 5240,
      "##weep ": 5241,
      "##ked ": 5242,
      "##IB": 5243,
      "##Boling": 5244,
      "##DE": 5245,
      "##His ": 5246,
      "##thes": 5247,
      "##thro": 5248,
      "##thus": 5249,
      "##thie": 5250,
      "##out,\n": 5251,
      "##y of ": 5252,
      "##eaven ": 5253,
      "##to say ": 5254,
      "##ste": 5255,
      "## myself": 5256,
      "##no\n": 5257,
      "##ford ": 5258,
      "##reck": 5259,
      "##ook, ": 5260,
      "##ears ": 5261,
      "##ing and ": 5262,
      "##as well ": 5263,
      "##be,\n": 5264,
      "##fast": 5265,
      "##suit": 5266,
      "##rust ": 5267,
      "##elcome, ": 5268,
      "##word.\n": 5269,
      "##tail": 5270,
      "  Ben": 5271,
      "##blush": 5272,
      "##man,\n": 5273,
      "##what he ": 5274,
      "##assur": 5275,
      "##fif": 5276,
      "##loved ": 5277,
      "##let it ": 5278,
      "##expres": 5279,
      "##self-": 5280,
      "##they have ": 5281,
      "##I'll be ": 5282,
      "##baw": 5283,
      "##erefore, ": 5284,
      "##I am a ": 5285,
      "##know not ": 5286,
      "##chall": 5287,
      "##wife, ": 5288,
      "##wife.\n": 5289,
      "##held ": 5290,
      "##enemy ": 5291,
      "##content ": 5292,
      "## honour ": 5293,
      "##centi": 5294,
      "                                                         ": 5295,
      "  MARCUS. ": 5296,
      "##groan": 5297,
      "##Buckingham": 5298,
      "##lend ": 5299,
      "##Sco": 5300,
      "##song": 5301,
      "##fter ": 5302,
      "##fine ": 5303,
      "##KATH": 5304,
      "##!- ": 5305,
      "##ve's ": 5306,
      "##EF ": 5307,
      "##, his ": 5308,
      "##out, ": 5309,
      "##you that ": 5310,
      "##se?\n": 5311,
      "##lim": 5312,
      "##lik": 5313,
      "##his": 5314,
      "##ce!\n": 5315,
      "##lock": 5316,
      "##ONS": 5317,
      "##. Tell ": 5318,
      "  Cap": 5319,
      "##. I cannot ": 5320,
      "##neg": 5321,
      "    Th' ": 5322,
      "##man\n": 5323,
      "##ho's ": 5324,
      "##ds of ": 5325,
      "##like to ": 5326,
      "  GU": 5327,
      "##. Where is ": 5328,
      "##ope ": 5329,
      "##'d; ": 5330,
      "##if they ": 5331,
      "##preh": 5332,
      "##precious ": 5333,
      "##command ": 5334,
      "##hand,\n": 5335,
      "##lieve ": 5336,
      "##.             ": 5337,
      "##house.\n": 5338,
      "##leave to ": 5339,
      "##name, ": 5340,
      "## may": 5341,
      "##ness.\n": 5342,
      "##safe ": 5343,
      "##kill'd ": 5344,
      "##wert ": 5345,
      "##quickly ": 5346,
      "                          Enter ": 5347,
      "  CHARMIAN": 5348,
      "  STEPHANO": 5349,
      "##EF JUST": 5350,
      "##hem": 5351,
      "##mong": 5352,
      "##mend ": 5353,
      "##dag": 5354,
      "##deeds ": 5355,
      "##wo ": 5356,
      "##wound": 5357,
      "##fan": 5358,
      "##Clif": 5359,
      "##Be ": 5360,
      "##BISHOP": 5361,
      "##Wor": 5362,
      "    you ": 5363,
      "##ani": 5364,
      "##receive ": 5365,
      "##it; ": 5366,
      "##you know": 5367,
      "##ing of ": 5368,
      "##unless ": 5369,
      "##as we ": 5370,
      "##sister ": 5371,
      "##sician": 5372,
      "##mai": 5373,
      "    And the ": 5374,
      "##ORA": 5375,
      "##real": 5376,
      "##wher": 5377,
      "##table ": 5378,
      "##! O": 5379,
      "  CAL": 5380,
      "##post": 5381,
      "##mortal ": 5382,
      "##ELLE": 5383,
      "##her\n": 5384,
      "  BARDOLPH": 5385,
      "  Mer": 5386,
      "##advi": 5387,
      "##perceive ": 5388,
      "##him to ": 5389,
      "##love's ": 5390,
      "  Laer": 5391,
      "##eyes": 5392,
      "##son,\n": 5393,
      "  DIOMED": 5394,
      "##you, sir, ": 5395,
      "##I am not ": 5396,
      "##. Look ": 5397,
      "##MAIN": 5398,
      "##court ": 5399,
      "##Lord, ": 5400,
      "##comes the ": 5401,
      "##which\n": 5402,
      "##Grace ": 5403,
      "                     Enter ": 5404,
      "    If thou ": 5405,
      "##creature": 5406,
      "##summ": 5407,
      "##quarrel": 5408,
      "DROMIO OF EPHESUS. ": 5409,
      "##England's ": 5410,
      "##bestow": 5411,
      "##. Un": 5412,
      "  HOSTESS. ": 5413,
      "  GRUMIO": 5414,
      "##Brutus ": 5415,
      "##Cardinal": 5416,
      "##William ": 5417,
      "##Desdemon": 5418,
      "THE ": 5419,
      "##ry\n": 5420,
      "##mighty ": 5421,
      "##dres": 5422,
      "##adieu": 5423,
      "##SANDER": 5424,
      "##oll": 5425,
      "##sch": 5426,
      "##sam": 5427,
      "##fran": 5428,
      "##by": 5429,
      "##Com": 5430,
      "##Benedi": 5431,
      "##UMAIN": 5432,
      "##What, ": 5433,
      "##'ll": 5434,
      "    not ": 5435,
      "    God ": 5436,
      "##ess,\n": 5437,
      "##of them ": 5438,
      "##my lie": 5439,
      "##along": 5440,
      "##ARIUS. ": 5441,
      "##faith ": 5442,
      "##sake ": 5443,
      "##suit ": 5444,
      "##for our ": 5445,
      "##ilt thou ": 5446,
      "##allow": 5447,
      "##more\n": 5448,
      "  SALISBURY": 5449,
      "##no man ": 5450,
      "##fix": 5451,
      "##son.\n": 5452,
      "    Whom ": 5453,
      "##foolish ": 5454,
      "##friends, ": 5455,
      "##cure": 5456,
      "##I do not ": 5457,
      "##world, ": 5458,
      "##wrong ": 5459,
      "##double ": 5460,
      "## honour": 5461,
      "##nothing but ": 5462,
      "##witch": 5463,
      "##fault ": 5464,
      "##subject ": 5465,
      "##brief": 5466,
      "##Falstaff": 5467,
      "##RENCH": 5468,
      "##ial ": 5469,
      "##d!\n": 5470,
      "##SA": 5471,
      "##s] ": 5472,
      "##DELLO": 5473,
      "##Mu": 5474,
      "##erce ": 5475,
      "##lly ": 5476,
      "##one.\n": 5477,
      "##the matter": 5478,
      "##ford, ": 5479,
      "##for their ": 5480,
      "##as they ": 5481,
      "##, and so ": 5482,
      "##ce; ": 5483,
      "##have the ": 5484,
      "##ONT": 5485,
      "  PO": 5486,
      "##to, ": 5487,
      "## that the ": 5488,
      "##ted,\n": 5489,
      "##heart,\n": 5490,
      "    Mar": 5491,
      "##dead, ": 5492,
      "##son\n": 5493,
      "##plain ": 5494,
      "##pair": 5495,
      "##offer": 5496,
      "##peak, ": 5497,
      "##AMORA": 5498,
      "##longer ": 5499,
      "##death\n": 5500,
      "  CADE": 5501,
      "##ation, ": 5502,
      "##IONDELLO": 5503,
      "##.            ": 5504,
      "    In the ": 5505,
      "  LUCENTIO": 5506,
      "##. By my ": 5507,
      "##would\n": 5508,
      "##haste ": 5509,
      "##banish'd ": 5510,
      "##justice ": 5511,
      "##title ": 5512,
      "##battle ": 5513,
      "##fresh ": 5514,
      "##natural ": 5515,
      "##VIRAG": 5516,
      "##IBAN": 5517,
      "  GUIDER": 5518,
      "##TT": 5519,
      "##e.  \n": 5520,
      "##ie ": 5521,
      "##den ": 5522,
      "##citizen": 5523,
      "##get": 5524,
      "##gard": 5525,
      "##woun": 5526,
      "##; his ": 5527,
      "##pure ": 5528,
      "##fy ": 5529,
      "##big": 5530,
      "##FID": 5531,
      "##vel ": 5532,
      "##Wal": 5533,
      "##VILLE": 5534,
      "##Perc": 5535,
      "##:  \n": 5536,
      "    be ": 5537,
      "##er-": 5538,
      "##ors ": 5539,
      "##or.\n": 5540,
      "##order ": 5541,
      "##end\n": 5542,
      "##one\n": 5543,
      "##is to ": 5544,
      "##of heaven": 5545,
      "##remain": 5546,
      "##th to ": 5547,
      "##le;\n": 5548,
      "##amaz": 5549,
      "##shin": 5550,
      "##s, that ": 5551,
      "##spit": 5552,
      "##with their ": 5553,
      "##eless ": 5554,
      "##worst ": 5555,
      "##was\n": 5556,
      "     O": 5557,
      "##OLOF": 5558,
      "    To the ": 5559,
      "##we may ": 5560,
      "##we must ": 5561,
      "##. Here's ": 5562,
      "##. Some ": 5563,
      "##hearts ": 5564,
      "##. On": 5565,
      "##head.\n": 5566,
      "##IRAND": 5567,
      "##now,\n": 5568,
      "##well\n": 5569,
      "##prithee ": 5570,
      "##gelo": 5571,
      "  WILLIAM": 5572,
      "##offer ": 5573,
      "##counten": 5574,
      "##'tis a ": 5575,
      "##hand.\n": 5576,
      "##cannot be ": 5577,
      "##dull ": 5578,
      "##URN": 5579,
      "  FIRST CITIZEN": 5580,
      "##men.\n": 5581,
      "## them.\n": 5582,
      "##than the ": 5583,
      "## thee,\n": 5584,
      "##fortunes ": 5585,
      "##master, ": 5586,
      "##ATURN": 5587,
      "##miser": 5588,
      "##wonder ": 5589,
      "##wherefore ": 5590,
      "##letters ": 5591,
      "##years ": 5592,
      "##promise ": 5593,
      "##DERIGO": 5594,
      "##mother's ": 5595,
      "##.                                        ": 5596,
      "  MACDUFF": 5597,
      "  PAULINA": 5598,
      "    Which, ": 5599,
      "##play the ": 5600,
      "##kins": 5601,
      "##subjec": 5602,
      "##friend, ": 5603,
      "##issue ": 5604,
      "##DUKE OF ": 5605,
      "##jewel": 5606,
      "  RODERIGO": 5607,
      "##public": 5608,
      "  LADY MACBETH": 5609,
      "##Silvi": 5610,
      "  DIOMEDES. ": 5611,
      "##OLOFERN": 5612,
      "##ici": 5613,
      "##nati": 5614,
      "##Ge": 5615,
      "##p\n": 5616,
      "##ff ": 5617,
      "##ves, ": 5618,
      "##UBERT": 5619,
      "##ZAL": 5620,
      "##inv": 5621,
      "## then, ": 5622,
      "##er and ": 5623,
      "    Tell ": 5624,
      "##ate\n": 5625,
      "##; so ": 5626,
      "##ity, ": 5627,
      "##you a ": 5628,
      "##behold ": 5629,
      "##thell": 5630,
      "##s, I ": 5631,
      "##ONZAL": 5632,
      "##. Therefore ": 5633,
      "##shadow": 5634,
      "##with you.\n": 5635,
      "##cking ": 5636,
      "##knave ": 5637,
      "##rom ": 5638,
      "##condu": 5639,
      "##condem": 5640,
      "##up.\n": 5641,
      "  PISANIO": 5642,
      "##all that ": 5643,
      "##OLL": 5644,
      "  BEL": 5645,
      "##move ": 5646,
      "##least ": 5647,
      "##sir, I ": 5648,
      "##perform": 5649,
      "##civil": 5650,
      "##dispatch": 5651,
      "##venge": 5652,
      "##place.\n": 5653,
      "##extrem": 5654,
      "##angel": 5655,
      "##open ": 5656,
      "    De": 5657,
      "  TALBOT": 5658,
      "## hither": 5659,
      "##too, ": 5660,
      "##King, ": 5661,
      "##blood\n": 5662,
      "##King of ": 5663,
      "##merry ": 5664,
      "##living ": 5665,
      "##sorry ": 5666,
      "##match": 5667,
      "##before the ": 5668,
      "##Margar": 5669,
      "##close ": 5670,
      "  Oph": 5671,
      "##straight ": 5672,
      "##holds ": 5673,
      "##every": 5674,
      "##madam.\n": 5675,
      "##former ": 5676,
      "## that's ": 5677,
      "##voice ": 5678,
      "##bitter ": 5679,
      "##reput": 5680,
      "##borne ": 5681,
      "##quarre": 5682,
      "##Hermi": 5683,
      "##scarce ": 5684,
      "  NORFOLK": 5685,
      "##poison": 5686,
      "  GREMIO": 5687,
      "##mercy ": 5688,
      "  SILVIA": 5689,
      "##simple ": 5690,
      "##circum": 5691,
      "##Lancaster": 5692,
      "  VOLUMNIA": 5693,
      "  AUTOLYCUS. ": 5694,
      "  GUIDERIUS. ": 5695,
      "##ATURNIN": 5696,
      "##hence": 5697,
      "##rook": 5698,
      "##d-": 5699,
      "##a's ": 5700,
      "##lear": 5701,
      "##gor": 5702,
      "##Sen": 5703,
      "##o!\n": 5704,
      "##piti": 5705,
      "##furn": 5706,
      "##Cam": 5707,
      "##Be": 5708,
      "##Pri": 5709,
      "##Pomp": 5710,
      "##  Exit\n": 5711,
      "##ers\n": 5712,
      "##en,\n": 5713,
      "##esid": 5714,
      "## mis": 5715,
      "##for her ": 5716,
      "##a great ": 5717,
      "##he shall ": 5718,
      "##rascal": 5719,
      "##rob": 5720,
      "##deter": 5721,
      "##spa": 5722,
      "##rude ": 5723,
      "##are not ": 5724,
      "##wast ": 5725,
      "  POLIXEN": 5726,
      "##ourselves ": 5727,
      "  Fool": 5728,
      "##proper ": 5729,
      "##warran": 5730,
      "  HECTOR": 5731,
      "##eyes, ": 5732,
      "  AARON": 5733,
      "##disea": 5734,
      "##a mon": 5735,
      "##again\n": 5736,
      "    Doth ": 5737,
      "##from your ": 5738,
      "##hand\n": 5739,
      "##train": 5740,
      "##blood, ": 5741,
      "##cuck": 5742,
      "  FIRST SENATOR": 5743,
      "##troo": 5744,
      "##.              ": 5745,
      "##upon your ": 5746,
      "##mine own ": 5747,
      "##he'll ": 5748,
      "##world,\n": 5749,
      "##sure, ": 5750,
      "##. If you ": 5751,
      "##virtuous ": 5752,
      "##Caesar's ": 5753,
      "##spirits ": 5754,
      "##deliver ": 5755,
      "##Henr": 5756,
      "##IUS\n": 5757,
      "##behind ": 5758,
      "                        Enter ": 5759,
      "##neighbour": 5760,
      "  Alb": 5761,
      "##IRANDA": 5762,
      "##deed, ": 5763,
      "##c ": 5764,
      "##corn": 5765,
      "##ge,\n": 5766,
      "##SCENE ": 5767,
      "##Signior ": 5768,
      "##y! ": 5769,
      "##bene": 5770,
      "##Char": 5771,
      "##DY": 5772,
      "##FIC": 5773,
      "##WARWICK": 5774,
      "##Vol": 5775,
      "##threa": 5776,
      "##throw": 5777,
      "##thumber": 5778,
      "##ous\n": 5779,
      "  LO": 5780,
      "##ardon": 5781,
      "##is he ": 5782,
      "##and your ": 5783,
      "    All": 5784,
      "##he will ": 5785,
      "##eed\n": 5786,
      "##un ": 5787,
      "##ENE": 5788,
      "##ENZ": 5789,
      "##why, ": 5790,
      "##with our ": 5791,
      "##knigh": 5792,
      "##me;\n": 5793,
      "##selves": 5794,
      "##we do ": 5795,
      "  SLENDER": 5796,
      "##bling ": 5797,
      "##. Sir ": 5798,
      "##. Now": 5799,
      "##cid": 5800,
      "##now?\n": 5801,
      "##did not ": 5802,
      "    No, ": 5803,
      "    Nay, ": 5804,
      "##desper": 5805,
      "##guard ": 5806,
      "##greater ": 5807,
      "##honourable ": 5808,
      "##scap": 5809,
      "##own.\n": 5810,
      "##twel": 5811,
      "##. Let's ": 5812,
      "##king, ": 5813,
      "##buck": 5814,
      "##first": 5815,
      "##friends,\n": 5816,
      "##Angelo": 5817,
      "##company ": 5818,
      "  FIRST SOLDIER": 5819,
      "##soul\n": 5820,
      "##ment.\n": 5821,
      "##lady's ": 5822,
      "##when they ": 5823,
      "##QUES. ": 5824,
      "## makes ": 5825,
      "##large ": 5826,
      "##ness,\n": 5827,
      "##EPHERD": 5828,
      "##cousin, ": 5829,
      "##with him.\n": 5830,
      "##bids ": 5831,
      "##servant": 5832,
      "##sovereign ": 5833,
      "##Monta": 5834,
      "##music ": 5835,
      "##'S palace\n": 5836,
      "##trans": 5837,
      "##girl": 5838,
      "##ancient ": 5839,
      "##condition": 5840,
      "##Leonat": 5841,
      "  JAQUES. ": 5842,
      "##Attendant": 5843,
      "##URIO": 5844,
      "##EF JUSTICE": 5845,
      "##TTOM": 5846,
      "  BELARIUS. ": 5847,
      "##em ": 5848,
      "##dge": 5849,
      "##gol": 5850,
      "##tee": 5851,
      "##tent ": 5852,
      "##feed ": 5853,
      "##fanc": 5854,
      "##With ": 5855,
      "##ject ": 5856,
      "    is ": 5857,
      "##in these ": 5858,
      "##ance.\n": 5859,
      "##or,\n": 5860,
      "  R": 5861,
      "##are, ": 5862,
      "##on m": 5863,
      "##on't": 5864,
      "## th'": 5865,
      "## through": 5866,
      "##hat\n": 5867,
      "##to you ": 5868,
      "##to their ": 5869,
      "##forget ": 5870,
      "##th of ": 5871,
      "##in of ": 5872,
      "##tive ": 5873,
      "##, and my ": 5874,
      "##m of ": 5875,
      "##or else ": 5876,
      "##. With": 5877,
      "##spend ": 5878,
      "##with h": 5879,
      "##with me": 5880,
      "##word, ": 5881,
      "##oly ": 5882,
      "##but to ": 5883,
      "  CHI": 5884,
      "##knif": 5885,
      "##ly to ": 5886,
      "##ESE": 5887,
      "##contr": 5888,
      "##by thy ": 5889,
      "##ELAND": 5890,
      "##mul": 5891,
      "##. He's ": 5892,
      "    Made ": 5893,
      "##part, ": 5894,
      "##. Nor ": 5895,
      "  AJAX": 5896,
      "##love and ": 5897,
      "##desp": 5898,
      "##which I ": 5899,
      "##tion.\n": 5900,
      "##flou": 5901,
      "##PHIL": 5902,
      "##king,\n": 5903,
      "##. And so ": 5904,
      "##clin": 5905,
      "##blood.\n": 5906,
      "##ESTMOR": 5907,
      "##mini": 5908,
      "##fearful ": 5909,
      "##curse ": 5910,
      "##new-": 5911,
      "##to-night": 5912,
      "##tell thee ": 5913,
      "##weary ": 5914,
      "##seems ": 5915,
      "##in the\n": 5916,
      "##revenge ": 5917,
      "##towards ": 5918,
      "##Warwick": 5919,
      "  KATHARINE": 5920,
      "##IZEL": 5921,
      "##LORIZEL": 5922,
      "##field ": 5923,
      "##conquer": 5924,
      "                                                         Exeunt.\n": 5925,
      "##ONZALO": 5926,
      "  CHIEF JUSTICE": 5927,
      "##ESTMORELAND": 5928,
      "LUC": 5929,
      "##hood ": 5930,
      "##eful ": 5931,
      "##cta": 5932,
      "##cted ": 5933,
      "##langu": 5934,
      "##wol": 5935,
      "##BE": 5936,
      "##-  \n": 5937,
      "##Othell": 5938,
      "##MEN": 5939,
      "##'s, ": 5940,
      "    will ": 5941,
      "##s for ": 5942,
      "##, I'll ": 5943,
      "##er?\n": 5944,
      "##army ": 5945,
      "##to re": 5946,
      "##ches ": 5947,
      "##a p": 5948,
      "##in some ": 5949,
      "##as my ": 5950,
      "##alone ": 5951,
      "##an as": 5952,
      "##coming ": 5953,
      "##that my ": 5954,
      "##or no": 5955,
      "##worm": 5956,
      "##. I must ": 5957,
      "    Thou": 5958,
      "##from this ": 5959,
      "##bosom ": 5960,
      "##was not ": 5961,
      "##us, and ": 5962,
      "##him that ": 5963,
      "  My ": 5964,
      "##part of ": 5965,
      "##et,\n": 5966,
      "##OFFIC": 5967,
      "##warlike ": 5968,
      "  HOLOFERN": 5969,
      "##action ": 5970,
      "##plague ": 5971,
      "##.                   ": 5972,
      "##presence ": 5973,
      "##count ": 5974,
      "##commis": 5975,
      "##ducat": 5976,
      "##custom": 5977,
      "##of that": 5978,
      "    Ere ": 5979,
      "##this\n": 5980,
      "##world\n": 5981,
      "##; then ": 5982,
      "##. Thou art ": 5983,
      "##question ": 5984,
      "##defend ": 5985,
      "##wilt thou ": 5986,
      "##perfec": 5987,
      "##wisdom": 5988,
      "##. Peace, ": 5989,
      "  POLIXENES. ": 5990,
      "##ick": 5991,
      "##meet": 5992,
      "##ces, ": 5993,
      "##ym": 5994,
      "##wn": 5995,
      "##wand": 5996,
      "##; they ": 5997,
      "##CELO": 5998,
      "##'em ": 5999,
      "##Pol": 6000,
      "##zz": 6001,
      "##th'": 6002,
      "##s a ": 6003,
      "## thought ": 6004,
      "##sequ": 6005,
      "##e, I ": 6006,
      "##le?\n": 6007,
      "##it, and ": 6008,
      "##already ": 6009,
      "##always ": 6010,
      "##tial ": 6011,
      "##me the ": 6012,
      "##ded.\n": 6013,
      "##sage ": 6014,
      "##speech ": 6015,
      "##ed and ": 6016,
      "##tak": 6017,
      "##! A": 6018,
      "##! Th": 6019,
      "##conce": 6020,
      "##doom": 6021,
      "    Say ": 6022,
      "##me; ": 6023,
      "##? Is ": 6024,
      "    To see ": 6025,
      "##all our ": 6026,
      "##from her ": 6027,
      "##temper": 6028,
      "##abs": 6029,
      "##. Thus ": 6030,
      "##, I pray ": 6031,
      "  DUMAIN": 6032,
      "##had not ": 6033,
      "    Look ": 6034,
      "    Can": 6035,
      "##oppos": 6036,
      "##practi": 6037,
      "##prithee, ": 6038,
      "    Des": 6039,
      "##preva": 6040,
      "    Per": 6041,
      "    Give me ": 6042,
      "##themselves ": 6043,
      "##Cast": 6044,
      "##LAIN": 6045,
      "##.           ": 6046,
      "##weak ": 6047,
      "  EX": 6048,
      "##horse": 6049,
      "##quick ": 6050,
      "                             ": 6051,
      "##captain": 6052,
      "##hath made ": 6053,
      "##ctor ": 6054,
      "##office ": 6055,
      "##. If he ": 6056,
      "##. Do not ": 6057,
      "##no more.\n": 6058,
      "##drop": 6059,
      "##children": 6060,
      "##sport ": 6061,
      "##ARDINAL": 6062,
      "##consider": 6063,
      "  AGAMEMNON": 6064,
      "##Beatri": 6065,
      "##school": 6066,
      "  HOLOFERNES. ": 6067,
      "##Ti": 6068,
      "##messeng": 6069,
      "##crow": 6070,
      "##aught ": 6071,
      "##ug": 6072,
      "##Sali": 6073,
      "##oor ": 6074,
      "##pul": 6075,
      "##fil": 6076,
      "##Ber": 6077,
      "##!        ": 6078,
      "##var": 6079,
      "##ero": 6080,
      "  EL": 6081,
      "##ing his ": 6082,
      "##at this ": 6083,
      "##al.\n": 6084,
      "##lodg": 6085,
      "##sake, ": 6086,
      "##with such ": 6087,
      "  Corn": 6088,
      "##way.\n": 6089,
      "##. I am": 6090,
      "##memor": 6091,
      "##? How ": 6092,
      "##thou wilt ": 6093,
      "##quite ": 6094,
      "##. Sta": 6095,
      "##. Say ": 6096,
      "##moon": 6097,
      "##. I thank ": 6098,
      "##asleep": 6099,
      "##us;\n": 6100,
      "##. Of ": 6101,
      "##eye,\n": 6102,
      "##eyes.\n": 6103,
      "##'twixt ": 6104,
      "##emon": 6105,
      "##plagu": 6106,
      "##should not ": 6107,
      "  Dog": 6108,
      "##now the ": 6109,
      "  Gon": 6110,
      "##make a ": 6111,
      "    Lo": 6112,
      "    Lest ": 6113,
      "##idle ": 6114,
      "##peace, ": 6115,
      "##friends.\n": 6116,
      "##when you ": 6117,
      "Enter the ": 6118,
      "## much": 6119,
      "##men\n": 6120,
      "##Duk": 6121,
      "##BERLAIN": 6122,
      "##live.\n": 6123,
      "## than the ": 6124,
      "##pow'r": 6125,
      "##upon a ": 6126,
      "##master's ": 6127,
      "## heart ": 6128,
      "    Thou art ": 6129,
      "##promi": 6130,
      "##hours ": 6131,
      "##favour ": 6132,
      "##storm": 6133,
      "##valour": 6134,
      "##point ": 6135,
      "## mine own ": 6136,
      "##murder": 6137,
      "                 Enter ": 6138,
      "##anything": 6139,
      "##LORD ": 6140,
      "##imagin": 6141,
      "  When ": 6142,
      "##melanchol": 6143,
      "##MESSENGER\n": 6144,
      "##Egyp": 6145,
      "##ENZO": 6146,
      "## Exeunt\n": 6147,
      "##Troy": 6148,
      "##hold": 6149,
      "##dr": 6150,
      "##dit": 6151,
      "##o-": 6152,
      "##we\n": 6153,
      "##YSANDER": 6154,
      "##WAT": 6155,
      "##\"    ": 6156,
      "    in ": 6157,
      "##or the ": 6158,
      "  RICHARD": 6159,
      "##art": 6160,
      "##on her ": 6161,
      "##I might ": 6162,
      "##to me, ": 6163,
      "##steel": 6164,
      "##stree": 6165,
      "## might ": 6166,
      "    Ar": 6167,
      "    Ah, ": 6168,
      "##earl": 6169,
      "##rac": 6170,
      "##main ": 6171,
      "    And therefore ": 6172,
      "##cept ": 6173,
      "##speed ": 6174,
      "##ter.\n": 6175,
      "  CLIFFORD": 6176,
      "##. Ar": 6177,
      "##conver": 6178,
      "##contra": 6179,
      "##? I ": 6180,
      "##age\n": 6181,
      "##thou dost ": 6182,
      "##more.\n": 6183,
      "##from thy ": 6184,
      "##leaves ": 6185,
      "  FABIAN": 6186,
      "##true.\n": 6187,
      "  HUBERT": 6188,
      "## himself ": 6189,
      "##should I ": 6190,
      "##case ": 6191,
      "  GONZALO": 6192,
      "##my lord ": 6193,
      "    Could ": 6194,
      "##friar": 6195,
      "##coat": 6196,
      "##give him ": 6197,
      "##tion\n": 6198,
      "##tion, ": 6199,
      "##willing": 6200,
      "##courti": 6201,
      "##clear": 6202,
      "    Or else ": 6203,
      "##slain": 6204,
      "##quiet ": 6205,
      "##gone.\n": 6206,
      "##with me.\n": 6207,
      "##appear ": 6208,
      "##honour, ": 6209,
      "##pale ": 6210,
      "    Without ": 6211,
      "##sometime ": 6212,
      "##patience ": 6213,
      "##turn'd ": 6214,
      "##about the ": 6215,
      "##single ": 6216,
      "##tic ": 6217,
      "##shoulder": 6218,
      "##smoo": 6219,
      "##ector ": 6220,
      "##suffer ": 6221,
      "##report ": 6222,
      "##trumpet": 6223,
      "##infec": 6224,
      "##Harry ": 6225,
      "##. Up": 6226,
      "##reverend ": 6227,
      "##trouble ": 6228,
      "##proceed": 6229,
      "##accus": 6230,
      "##conscience ": 6231,
      "##ta'en ": 6232,
      "##private ": 6233,
      "##an honest ": 6234,
      "##ed,\n": 6235,
      "##i' ": 6236,
      "##cry": 6237,
      "##len": 6238,
      "##St": 6239,
      "##sli": 6240,
      "##squ": 6241,
      "##Au": 6242,
      "##Aja": 6243,
      "##ping ": 6244,
      "##bold": 6245,
      "##BARDOLPH": 6246,
      "##vous ": 6247,
      "##ves\n": 6248,
      "##MON": 6249,
      "##UD": 6250,
      "##LUS. ": 6251,
      "##'st": 6252,
      "##Ver": 6253,
      "##Per": 6254,
      "##Phi": 6255,
      "##jour": 6256,
      "##)\n": 6257,
      "##through ": 6258,
      "##s my ": 6259,
      "##in's ": 6260,
      "##. Re": 6261,
      "##end.\n": 6262,
      "##encoun": 6263,
      "##forfe": 6264,
      "##a fool": 6265,
      "##; I will ": 6266,
      "##le's ": 6267,
      "##you be ": 6268,
      "##in and ": 6269,
      "##mak": 6270,
      "##whence ": 6271,
      "##sudden ": 6272,
      "##and.\n": 6273,
      "##! O ": 6274,
      "##igh ": 6275,
      "##do,\n": 6276,
      "##? O": 6277,
      "##morning ": 6278,
      "##. I\n": 6279,
      "##. I think ": 6280,
      "##whilst ": 6281,
      "##us to ": 6282,
      "  MIRANDA": 6283,
      "##lovely ": 6284,
      "##she was ": 6285,
      "##she hath ": 6286,
      "##cian ": 6287,
      "  LYSANDER": 6288,
      "    No": 6289,
      "##priz": 6290,
      "##'d!\n": 6291,
      "##upon this ": 6292,
      "##march": 6293,
      "##can be ": 6294,
      "##clam": 6295,
      "##ble\n": 6296,
      "##. Did ": 6297,
      "##note ": 6298,
      "##that?\n": 6299,
      "##lady.\n": 6300,
      "##'t please ": 6301,
      "    For, ": 6302,
      "##down.\n": 6303,
      "##world.\n": 6304,
      "##villain ": 6305,
      "##which he ": 6306,
      "##sense ": 6307,
      "## that\n": 6308,
      "##humbly ": 6309,
      "##woo ": 6310,
      "##grown ": 6311,
      "##summer": 6312,
      "##employ": 6313,
      "  BOTTOM": 6314,
      "##Warwick, ": 6315,
      "##children ": 6316,
      "##were\n": 6317,
      "##. And, ": 6318,
      "##glory ": 6319,
      "##friend.\n": 6320,
      "##umphre": 6321,
      "##through the ": 6322,
      "##twice ": 6323,
      "  CALIBAN": 6324,
      "##RENCH ": 6325,
      "##quarrel ": 6326,
      "##PHILIP": 6327,
      "##Tybal": 6328,
      "##cit": 6329,
      "##a hea": 6330,
      "##y  \n": 6331,
      "##ses, ": 6332,
      "##fat ": 6333,
      "##fro": 6334,
      "##blo": 6335,
      "##CLO": 6336,
      "##D\n": 6337,
      "##Mal": 6338,
      "##'re": 6339,
      "##jec": 6340,
      "##, so ": 6341,
      "##ers": 6342,
      "##ant.\n": 6343,
      "##y is ": 6344,
      "  John": 6345,
      "##arm ": 6346,
      "##hall": 6347,
      "##hath\n": 6348,
      "##easy ": 6349,
      "##widow": 6350,
      "##strea": 6351,
      "##charm": 6352,
      "##se, and ": 6353,
      "##for him": 6354,
      "##forsworn": 6355,
      "##liver": 6356,
      "##ligi": 6357,
      "##he had ": 6358,
      "##uncle, ": 6359,
      "##in all ": 6360,
      "##it to ": 6361,
      "##it will ": 6362,
      "##your own ": 6363,
      "    And now ": 6364,
      "##fail": 6365,
      "##sac": 6366,
      "##there, ": 6367,
      "##else": 6368,
      "##kneel": 6369,
      "##point": 6370,
      "##imp": 6371,
      "##blame ": 6372,
      "##tedi": 6373,
      "##Exit": 6374,
      "##LES. ": 6375,
      "##angry ": 6376,
      "##rink": 6377,
      "##had rather ": 6378,
      "##you, sir": 6379,
      "##such as ": 6380,
      "##ed;\n": 6381,
      "##. Com": 6382,
      "##done,\n": 6383,
      "##yours ": 6384,
      "  TAMORA": 6385,
      "##thou\n": 6386,
      "##tune ": 6387,
      "##compas": 6388,
      "##them, ": 6389,
      "##ost thou ": 6390,
      "##voli": 6391,
      "##ment,\n": 6392,
      "##sea ": 6393,
      "##II.\n": 6394,
      "##begg": 6395,
      "##heir": 6396,
      "##ground ": 6397,
      "SCENE IV.\n": 6398,
      "##sight ": 6399,
      "##green ": 6400,
      "##part of the ": 6401,
      "##none but ": 6402,
      "##dearest ": 6403,
      "##ENAS. ": 6404,
      "ACT V": 6405,
      "##treacher": 6406,
      "##dinn": 6407,
      "##coward": 6408,
      "##cruel": 6409,
      "##Northumber": 6410,
      "##wretched ": 6411,
      "##. Will you ": 6412,
      "                    Enter ": 6413,
      "##ITCH": 6414,
      "##sharp ": 6415,
      "##tomb": 6416,
      "##Mortim": 6417,
      "##CELOT": 6418,
      "## Exit ": 6419,
      "##hell": 6420,
      "##ds,\n": 6421,
      "##nay, ": 6422,
      "##les, ": 6423,
      "##ull": 6424,
      "##y.  \n": 6425,
      "##o' ": 6426,
      "##All ": 6427,
      "##fish": 6428,
      "##Cup": 6429,
      "##Cres": 6430,
      "##vish ": 6431,
      "##Man": 6432,
      "##Mil": 6433,
      "##Un": 6434,
      "##WITCH": 6435,
      "##' th' ": 6436,
      "##Here ": 6437,
      "##\"     ": 6438,
      "##s do ": 6439,
      "##haz": 6440,
      "##is his ": 6441,
      "## he": 6442,
      "##seven ": 6443,
      "##of you ": 6444,
      "##of it.\n": 6445,
      "    Ac": 6446,
      "##; I have ": 6447,
      "##not thy ": 6448,
      "##es to ": 6449,
      "##ce's ": 6450,
      "##comman": 6451,
      "##fac": 6452,
      "##. There": 6453,
      "##suffi": 6454,
      "##. We'll ": 6455,
      "##was, ": 6456,
      "##up,\n": 6457,
      "##metri": 6458,
      "##nex": 6459,
      "##? The ": 6460,
      "  SOMERSET": 6461,
      "  SATURNIN": 6462,
      "##us and ": 6463,
      "##what they ": 6464,
      "##appreh": 6465,
      "##fig": 6466,
      "##pardon ": 6467,
      "##advent": 6468,
      "##love;\n": 6469,
      "##. One ": 6470,
      "##accor": 6471,
      "##hath a ": 6472,
      "##well,\n": 6473,
      "##make me ": 6474,
      "    Let's ": 6475,
      "##Thom": 6476,
      "##commend ": 6477,
      "##ESTOR": 6478,
      "##MERLE": 6479,
      "##posses": 6480,
      "##thank ": 6481,
      "##news?\n": 6482,
      "##this, ": 6483,
      "##world's ": 6484,
      "  LUCETTA": 6485,
      "  Or ": 6486,
      "  THESE": 6487,
      "##woman, ": 6488,
      "  ROSS. ": 6489,
      "##lawful ": 6490,
      "    Upon ": 6491,
      "##mistress ": 6492,
      "  LEW": 6493,
      "##lament": 6494,
      "##alone.\n": 6495,
      "##laugh ": 6496,
      "##lexand": 6497,
      "  CHARLES. ": 6498,
      "##strous ": 6499,
      "##govern": 6500,
      "  HERMIA": 6501,
      "##GAVILLE": 6502,
      "##Bolingbro": 6503,
      "##Geor": 6504,
      "##ctavi": 6505,
      "##he?\n": 6506,
      "##home": 6507,
      "##iz": 6508,
      "##ius ": 6509,
      "##rhy": 6510,
      "##dle ": 6511,
      "##cold": 6512,
      "##nar": 6513,
      "##nal ": 6514,
      "##ay": 6515,
      "##tes": 6516,
      "##what, ": 6517,
      "##sl": 6518,
      "##NOR": 6519,
      "##by, ": 6520,
      "##ball": 6521,
      "##BA": 6522,
      "##vex": 6523,
      "##Mer": 6524,
      "##Veni": 6525,
      "##Jes": 6526,
      "##PID": 6527,
      "##zen ": 6528,
      "##thron": 6529,
      "    this ": 6530,
      "##, my lord": 6531,
      "##ance\n": 6532,
      "##on their ": 6533,
      "##hair ": 6534,
      "##habit": 6535,
      "##you!\n": 6536,
      "##eave ": 6537,
      "##steal ": 6538,
      "## me\n": 6539,
      "##lion ": 6540,
      "##ate.\n": 6541,
      "##atter ": 6542,
      "##itor ": 6543,
      "##rail": 6544,
      "##as much ": 6545,
      "##sion, ": 6546,
      "##ERISS": 6547,
      "    And not ": 6548,
      "##ce-": 6549,
      "##she\n": 6550,
      "##fain": 6551,
      "##who, ": 6552,
      "##taken ": 6553,
      "##! T": 6554,
      "##up and ": 6555,
      "##ALER": 6556,
      "##neither": 6557,
      "##here\n": 6558,
      "##here,\n": 6559,
      "##end,\n": 6560,
      "##ending ": 6561,
      "##endure ": 6562,
      "##vious ": 6563,
      "  LORD": 6564,
      "##abi": 6565,
      "##discour": 6566,
      "##discre": 6567,
      "##emper": 6568,
      "##. When": 6569,
      "##. Con": 6570,
      "##give it ": 6571,
      "##take it ": 6572,
      "    While ": 6573,
      "##go to ": 6574,
      "##pleas'd ": 6575,
      "## here, ": 6576,
      "##King,\n": 6577,
      "##chast": 6578,
      "  CAIUS. ": 6579,
      "##land\n": 6580,
      "##land,\n": 6581,
      "##LAUD": 6582,
      "##corrup": 6583,
      "##remed": 6584,
      "##name is ": 6585,
      "##drink": 6586,
      "##cowar": 6587,
      "##guilty ": 6588,
      "##pluck ": 6589,
      "##farewell.\n": 6590,
      "##writ ": 6591,
      "##continu": 6592,
      "##advantage ": 6593,
      "##street": 6594,
      "##punish": 6595,
      "##wicked ": 6596,
      "##possess": 6597,
      "##Andron": 6598,
      "  THESEUS. ": 6599,
      "##LAUDIO": 6600,
      "##hrew": 6601,
      "##ives ": 6602,
      "##nie": 6603,
      "##ge\n": 6604,
      "##ull ": 6605,
      "##p'd ": 6606,
      "##Yet ": 6607,
      "##!-\n": 6608,
      "##ve, and ": 6609,
      "##'ry ": 6610,
      "##Humphre": 6611,
      "    for ": 6612,
      "##s as ": 6613,
      "##inher": 6614,
      "##are.\n": 6615,
      "##on him": 6616,
      "## things ": 6617,
      "##is thy ": 6618,
      "##eath": 6619,
      "##stir ": 6620,
      "## mer": 6621,
      "## mad": 6622,
      "##sett": 6623,
      "##a very ": 6624,
      "##at on": 6625,
      "##he did ": 6626,
      "##; yet ": 6627,
      "##eed,\n": 6628,
      "##in arm": 6629,
      "    Who, ": 6630,
      "##roll": 6631,
      "##maid ": 6632,
      "##make\n": 6633,
      "    And let ": 6634,
      "##shrew": 6635,
      "##INCH": 6636,
      "##degre": 6637,
      "##ed to ": 6638,
      "##tast": 6639,
      "##wait ": 6640,
      "##by th' ": 6641,
      "    Then, ": 6642,
      "##top": 6643,
      "##blind ": 6644,
      "##ROC": 6645,
      "##person ": 6646,
      "##proof": 6647,
      "##proclaim": 6648,
      "##. O my ": 6649,
      "##head,\n": 6650,
      "##had a ": 6651,
      "##again, ": 6652,
      "##give you ": 6653,
      "##fold ": 6654,
      "  Which ": 6655,
      "##too much": 6656,
      "##complex": 6657,
      "##them\n": 6658,
      "##purcha": 6659,
      "##thee\n": 6660,
      "##England, ": 6661,
      "##piec": 6662,
      "##passion ": 6663,
      "##ground": 6664,
      "##way to ": 6665,
      "##. Let us ": 6666,
      "##something": 6667,
      "##in mine ": 6668,
      "    Of the ": 6669,
      "##get thee ": 6670,
      "##humour ": 6671,
      "##hang ": 6672,
      "##penn": 6673,
      "##watch ": 6674,
      "  PRINCE ": 6675,
      "##TAIN": 6676,
      "##find\n": 6677,
      "##grows ": 6678,
      "##IUS, ": 6679,
      "##better than ": 6680,
      "##lamb": 6681,
      "##greatest ": 6682,
      "##Warwick ": 6683,
      "##subject": 6684,
      "##succ": 6685,
      "##bound to ": 6686,
      "##stomach": 6687,
      "##swift ": 6688,
      "  PUCELLE": 6689,
      "  LEWIS. ": 6690,
      "##ERISSA": 6691,
      "##ee, ": 6692,
      "##round ": 6693,
      "##cop": 6694,
      "##leng": 6695,
      "##SC": 6696,
      "##S, ": 6697,
      "##y'": 6698,
      "##smo": 6699,
      "##bru": 6700,
      "##BIA": 6701,
      "##Bardolph": 6702,
      "##RESS ": 6703,
      "##ULO": 6704,
      "##Pea": 6705,
      "##PPA": 6706,
      "##Pray ": 6707,
      "##PTAIN": 6708,
      "##jest ": 6709,
      "##s were ": 6710,
      "##er, and ": 6711,
      "##. . ": 6712,
      "##ended ": 6713,
      "## thing": 6714,
      "##owe ": 6715,
      "##rew ": 6716,
      "##at thy ": 6717,
      "##he would ": 6718,
      "##rise ": 6719,
      "##attemp": 6720,
      "##lean ": 6721,
      "##let, ": 6722,
      "##rah": 6723,
      "##not your ": 6724,
      "##in good ": 6725,
      "##along ": 6726,
      "##it is": 6727,
      "##ere I ": 6728,
      "##sheep": 6729,
      "##come,\n": 6730,
      "##divi": 6731,
      "##d, the ": 6732,
      "##s, but ": 6733,
      "##irst, ": 6734,
      "##. I shall ": 6735,
      "##do it ": 6736,
      "##no less ": 6737,
      "  BIANCA": 6738,
      "##from me ": 6739,
      "##blam": 6740,
      "    Farewell": 6741,
      "##whit": 6742,
      "##man that ": 6743,
      "##what thou ": 6744,
      "  FLA": 6745,
      "  FLORIZEL": 6746,
      "##ho!\n": 6747,
      "##RIPPA": 6748,
      "##peri": 6749,
      "##percei": 6750,
      "##. Me": 6751,
      "##ts to ": 6752,
      "##; and so ": 6753,
      "##place\n": 6754,
      "##ill-": 6755,
      "##stern": 6756,
      "##. Give ": 6757,
      "##edom": 6758,
      "##own\n": 6759,
      "##INCULO": 6760,
      "##yours.\n": 6761,
      "##of man": 6762,
      "##away, ": 6763,
      "##mili": 6764,
      "##o'clo": 6765,
      "##CIBIA": 6766,
      "##bears ": 6767,
      "##bleed": 6768,
      "##soul, ": 6769,
      "##fellow, ": 6770,
      "##heir ": 6771,
      "##. Come, come, ": 6772,
      "##might have ": 6773,
      "##patience": 6774,
      "##visi": 6775,
      "  SHEPHERD": 6776,
      "  ARIEL": 6777,
      "  ARVIRAG": 6778,
      "##claim ": 6779,
      "##Edm": 6780,
      "##business": 6781,
      "##borrow": 6782,
      "##feast ": 6783,
      "##York ": 6784,
      "##company.\n": 6785,
      "##those that ": 6786,
      "##. SCENE 1": 6787,
      "##window": 6788,
      "##anything ": 6789,
      "##wanton ": 6790,
      "##constant ": 6791,
      "    To-": 6792,
      "##piece of ": 6793,
      "##tyrann": 6794,
      "##occasion": 6795,
      "  LORENZO": 6796,
      "##cunning ": 6797,
      "##public ": 6798,
      "##circumst": 6799,
      "##Henry's ": 6800,
      "##Montagu": 6801,
      "  EXETER": 6802,
      "##sacred ": 6803,
      "  SATURNINUS. ": 6804,
      "and ": 6805,
      "## Exit\n": 6806,
      "##Tri": 6807,
      "##hundred ": 6808,
      "##e-\n": 6809,
      "##r'd ": 6810,
      "##cis": 6811,
      "##aul": 6812,
      "##augh": 6813,
      "##sin ": 6814,
      "##Gentle": 6815,
      "##pill": 6816,
      "##key": 6817,
      "##kesp": 6818,
      "##Dou": 6819,
      "##Flourish": 6820,
      "##vin": 6821,
      "##ve?\n": 6822,
      "##PRINC": 6823,
      "##]  \n": 6824,
      "##s in the ": 6825,
      "##, you ": 6826,
      "##, which ": 6827,
      "##ins ": 6828,
      "  Ros": 6829,
      "##is so ": 6830,
      "##I say ": 6831,
      "##ing;\n": 6832,
      "##omin": 6833,
      "##the King ": 6834,
      "##chea": 6835,
      "##sely ": 6836,
      "    Till": 6837,
      "##rish ": 6838,
      "##ate,\n": 6839,
      "##raise ": 6840,
      "##not that ": 6841,
      "##ing a ": 6842,
      "##in love ": 6843,
      "##be so ": 6844,
      "##she, ": 6845,
      "##lost": 6846,
      "##face.\n": 6847,
      "##faction": 6848,
      "##with thee ": 6849,
      "##with them": 6850,
      "##take\n": 6851,
      "##are thee ": 6852,
      "##ES, ": 6853,
      "##conj": 6854,
      "##concer": 6855,
      "##confirm": 6856,
      "##. I know": 6857,
      "##polic": 6858,
      "  So ": 6859,
      "##no other ": 6860,
      "##leave": 6861,
      "##CHBISHOP": 6862,
      "##like an ": 6863,
      "##ween": 6864,
      "##eye\n": 6865,
      "  AENE": 6866,
      "##disgra": 6867,
      "##, I do ": 6868,
      "  DIANA": 6869,
      "##IRON": 6870,
      "##if we ": 6871,
      "##love to ": 6872,
      "##cover ": 6873,
      "##'st me ": 6874,
      "##INCE": 6875,
      "  KING PHILIP": 6876,
      "##away,\n": 6877,
      "##father,\n": 6878,
      "##due ": 6879,
      "##mine.\n": 6880,
      "##tale ": 6881,
      "##down\n": 6882,
      "##which, ": 6883,
      "##straight": 6884,
      "##over-": 6885,
      "##welcome, ": 6886,
      "##bid me ": 6887,
      "##patient": 6888,
      "##patient ": 6889,
      "##sent to ": 6890,
      "##visit ": 6891,
      "##ness' ": 6892,
      "  MARC": 6893,
      "##feast": 6894,
      "##short ": 6895,
      "##beseech you, ": 6896,
      "##dinner": 6897,
      "##gallant ": 6898,
      "##Let me ": 6899,
      "##chief ": 6900,
      "##pluck": 6901,
      "##respect ": 6902,
      "##attendant": 6903,
      "##perfect ": 6904,
      "##supper": 6905,
      "##ERDIN": 6906,
      "##wisdom ": 6907,
      "  AUFID": 6908,
      "##drunk": 6909,
      "##hurt ": 6910,
      "##sooth": 6911,
      "##embrace ": 6912,
      "##secret ": 6913,
      "##Edward's ": 6914,
      "##bastard ": 6915,
      "##persua": 6916,
      "##yramu": 6917,
      "##dreadful ": 6918,
      "## mayst ": 6919,
      "  FLAVIUS. ": 6920,
      "##kespear": 6921,
      "Another ": 6922,
      "##eth ": 6923,
      "##migh": 6924,
      "##dry ": 6925,
      "##numb": 6926,
      "##ash": 6927,
      "##gn ": 6928,
      "##gil": 6929,
      "##tle ": 6930,
      "##t' ": 6931,
      "##town ": 6932,
      "##yo": 6933,
      "##y-\n": 6934,
      "##pe ": 6935,
      "##CON": 6936,
      "##BRA": 6937,
      "##-like ": 6938,
      "##vey": 6939,
      "##Wel": 6940,
      "##WELL": 6941,
      "##'st\n": 6942,
      "##Here": 6943,
      "##: the ": 6944,
      "##, sir": 6945,
      "##ous.\n": 6946,
      "##ous,\n": 6947,
      "##infin": 6948,
      "##anqu": 6949,
      "## there is ": 6950,
      "##and to ": 6951,
      "##ing; ": 6952,
      "##se; ": 6953,
      "##earth,\n": 6954,
      "##le; ": 6955,
      "##rage ": 6956,
      "##my heart ": 6957,
      "##being": 6958,
      "##es that ": 6959,
      "##may": 6960,
      "##, and other": 6961,
      "##shut ": 6962,
      "##distra": 6963,
      "##face,\n": 6964,
      "##deligh": 6965,
      "##whol": 6966,
      "##super": 6967,
      "##spar": 6968,
      "##with thee": 6969,
      "##with you ": 6970,
      "##ed by ": 6971,
      "##ands ": 6972,
      "  PH": 6973,
      "##? T": 6974,
      "##? Why, ": 6975,
      "     M": 6976,
      "##all these ": 6977,
      "##pock": 6978,
      "  SIM": 6979,
      "##impossi": 6980,
      "##tem": 6981,
      "##fidi": 6982,
      "##peril": 6983,
      "##provo": 6984,
      "  Hero": 6985,
      "##accid": 6986,
      "##discover": 6987,
      "##disdain": 6988,
      "##place": 6989,
      "  Gent": 6990,
      "##privi": 6991,
      "##. Call ": 6992,
      "##from our ": 6993,
      "##ISTRESS ": 6994,
      "##past": 6995,
      "##offend ": 6996,
      "##ve;\n": 6997,
      "##IDOW": 6998,
      "##land.\n": 6999,
      "## music": 7000,
      "##ments ": 7001,
      "##pron": 7002,
      "##of this": 7003,
      "##of thee": 7004,
      "##therefore, ": 7005,
      "##outward ": 7006,
      "##soldier ": 7007,
      "##I would not ": 7008,
      "##Antonio": 7009,
      "                                                          Exeunt\n": 7010,
      "##Roderi": 7011,
      "##winter": 7012,
      "##humour": 7013,
      "##drawn": 7014,
      "##. If thou ": 7015,
      "##nail": 7016,
      "ACT I": 7017,
      "##silver ": 7018,
      "##judgment ": 7019,
      "##walk": 7020,
      "##famili": 7021,
      "## those that ": 7022,
      "##Capit": 7023,
      "##trumpet ": 7024,
      "##. Indeed, ": 7025,
      "##breed": 7026,
      "##lanta": 7027,
      "  LAUNCELOT": 7028,
      "##. Very ": 7029,
      "##Shakespear": 7030,
      "##ambiti": 7031,
      "##Christian ": 7032,
      "##slaughter": 7033,
      "##Somerse": 7034,
      "##fanta": 7035,
      "##civil ": 7036,
      "LUCIANA": 7037,
      "  ARVIRAGUS. ": 7038,
      "  AENEAS. ": 7039,
      "  AUFIDIUS. ": 7040,
      "##e  \n": 7041,
      "##io, ": 7042,
      "##mir": 7043,
      "##might": 7044,
      "##dly ": 7045,
      "##gl": 7046,
      "##ty,\n": 7047,
      "##s; but ": 7048,
      "##Gon": 7049,
      "##fel": 7050,
      "##floo": 7051,
      "##bab": 7052,
      "##COL": 7053,
      "##CTA": 7054,
      "##YER": 7055,
      "##Octavi": 7056,
      "##ves,\n": 7057,
      "##West": 7058,
      "##Will ": 7059,
      "##  Exeunt\n": 7060,
      "    for": 7061,
      "##y to ": 7062,
      "## mur": 7063,
      "##list": 7064,
      "##rid ": 7065,
      "##ale ": 7066,
      "##es are ": 7067,
      "##, and a ": 7068,
      "    And I ": 7069,
      "##shoo": 7070,
      "##shine ": 7071,
      "##come; ": 7072,
      "##k Anton": 7073,
      "##where is ": 7074,
      "##said": 7075,
      "##with that ": 7076,
      "##worship ": 7077,
      "##oldi": 7078,
      "##but one ": 7079,
      "##terri": 7080,
      "##for you.\n": 7081,
      "##. Ay, and ": 7082,
      "##way\n": 7083,
      "    See ": 7084,
      "  PAT": 7085,
      "    Those ": 7086,
      "    To have ": 7087,
      "##this the ": 7088,
      "##herea": 7089,
      "##mother, ": 7090,
      "    I cannot ": 7091,
      "##ransom": 7092,
      "##swell": 7093,
      "##truth, ": 7094,
      "##dead,\n": 7095,
      "##act ": 7096,
      "##. Then": 7097,
      "    Where is ": 7098,
      "##place, ": 7099,
      "##. Yea, ": 7100,
      "##hath not ": 7101,
      "  GA": 7102,
      "##make him ": 7103,
      "##more than": 7104,
      "##. Get ": 7105,
      "##scen": 7106,
      "##if\n": 7107,
      "##.                       ": 7108,
      "##marry, ": 7109,
      "##breathe ": 7110,
      "##traitor ": 7111,
      "##ABLE": 7112,
      "##King\n": 7113,
      "##duk": 7114,
      "##death, ": 7115,
      "##others ": 7116,
      "##rench": 7117,
      "##ment\n": 7118,
      "##good, ": 7119,
      "##when thou ": 7120,
      "##house of ": 7121,
      "    You have ": 7122,
      "##slee": 7123,
      "##talk": 7124,
      "##up your ": 7125,
      "##this?\n": 7126,
      "##name\n": 7127,
      "##quire": 7128,
      "                           Enter ": 7129,
      "##Queen, ": 7130,
      "    Thou hast ": 7131,
      "##soldiers ": 7132,
      "##ship.\n": 7133,
      "##bond": 7134,
      "##faults ": 7135,
      "##presently ": 7136,
      "ACT IV": 7137,
      "##myself.\n": 7138,
      "##should\n": 7139,
      "##valour ": 7140,
      "##ianca": 7141,
      "##such\n": 7142,
      "##learned ": 7143,
      "##power to ": 7144,
      "##cruel ": 7145,
      "##damn'd ": 7146,
      "##measure ": 7147,
      "##fashion": 7148,
      "##succes": 7149,
      "##fresh": 7150,
      "##your Highness ": 7151,
      "##never\n": 7152,
      "ACT III": 7153,
      "##afflic": 7154,
      "##Salisbur": 7155,
      "##WATCH": 7156,
      "##ALERIO": 7157,
      "##CIBIAD": 7158,
      "##Capitol": 7159,
      "## of ": 7160,
      "##Tru": 7161,
      "##rought ": 7162,
      "##de, ": 7163,
      "##d! ": 7164,
      "##aes": 7165,
      "##uri": 7166,
      "##Sing": 7167,
      "##o! ": 7168,
      "##soft ": 7169,
      "##pare ": 7170,
      "##Now, ": 7171,
      "##bran": 7172,
      "##bout ": 7173,
      "##bound": 7174,
      "##Burg": 7175,
      "##Well, ": 7176,
      "##'er": 7177,
      "##Pom": 7178,
      "##PAR": 7179,
      "##in him": 7180,
      "##intell": 7181,
      "##ans ": 7182,
      "##an.\n": 7183,
      "##enfor": 7184,
      "##one,\n": 7185,
      "##havi": 7186,
      "##I never ": 7187,
      "##to that ": 7188,
      "##to hear": 7189,
      "##wide ": 7190,
      "##sell": 7191,
      "##forth\n": 7192,
      "##repro": 7193,
      "##reign": 7194,
      "##rebel": 7195,
      "##he not ": 7196,
      "##; it ": 7197,
      "##; and\n": 7198,
      "##ray": 7199,
      "##unt ": 7200,
      "##ERO": 7201,
      "##your good ": 7202,
      "##majest": 7203,
      "##, and I ": 7204,
      "##ANCE": 7205,
      "##that thou ": 7206,
      "##fain ": 7207,
      "##ONGAVILLE": 7208,
      "##ded, ": 7209,
      "##. What": 7210,
      "##spir": 7211,
      "##wake ": 7212,
      "##. I will not ": 7213,
      "##? Th": 7214,
      "     A": 7215,
      "##quit": 7216,
      "##her,\n": 7217,
      "##. Here is ": 7218,
      "    I will not ": 7219,
      "    Mine ": 7220,
      "##soci": 7221,
      "##assure ": 7222,
      "##parts ": 7223,
      "##adu": 7224,
      "##perjur": 7225,
      "##going ": 7226,
      "##love?\n": 7227,
      "##prosper": 7228,
      "  LONGAVILLE": 7229,
      "##wards ": 7230,
      "##well;\n": 7231,
      "##make thee ": 7232,
      "##- and ": 7233,
      "##if she ": 7234,
      "##desc": 7235,
      "##ed?\n": 7236,
      "##upon him": 7237,
      "##ck and ": 7238,
      "##flu": 7239,
      "##done\n": 7240,
      "##buil": 7241,
      "##friend,\n": 7242,
      "## her.\n": 7243,
      "##fear.\n": 7244,
      "    Go, ": 7245,
      "##renown": 7246,
      "##where he ": 7247,
      "    If you ": 7248,
      "##cursed ": 7249,
      "##.               ": 7250,
      "    You are ": 7251,
      "  SECOND CITIZEN": 7252,
      "##calls ": 7253,
      "##name.\n": 7254,
      "##virgin": 7255,
      "    Hath": 7256,
      "##shows ": 7257,
      "##appet": 7258,
      "##Prince of ": 7259,
      "##skill": 7260,
      "##husband, ": 7261,
      "##humble ": 7262,
      "##black": 7263,
      "##drawn ": 7264,
      "##doubt": 7265,
      "##painted ": 7266,
      "##none.\n": 7267,
      "##stuff": 7268,
      "##obey ": 7269,
      "##country's ": 7270,
      "##Laer": 7271,
      "##Captain": 7272,
      "##behold": 7273,
      "##Norfol": 7274,
      "##Count ": 7275,
      "##fashion ": 7276,
      "##mean to ": 7277,
      "##Helen": 7278,
      "                            Enter ": 7279,
      "    Or, ": 7280,
      "##durst ": 7281,
      "##. Stand ": 7282,
      "##William Shakespear": 7283,
      "##the matter?\n": 7284,
      "##esides, ": 7285,
      "##determin": 7286,
      "##mm": 7287,
      "##ces\n": 7288,
      "##gain ": 7289,
      "##SON": 7290,
      "##tance ": 7291,
      "##ysand": 7292,
      "##we, ": 7293,
      "##slip": 7294,
      "##scep": 7295,
      "##pin": 7296,
      "##ple": 7297,
      "##IUS ": 7298,
      "##find": 7299,
      "##NI": 7300,
      "##bis": 7301,
      "##by.\n": 7302,
      "##bill": 7303,
      "##book ": 7304,
      "##Can": 7305,
      "##COR": 7306,
      "##RY ": 7307,
      "##OU": 7308,
      "##vini": 7309,
      "##'s": 7310,
      "##Pyramu": 7311,
      "##throw ": 7312,
      "##thyself ": 7313,
      "    but ": 7314,
      "##, C": 7315,
      "##, nor ": 7316,
      "##erve ": 7317,
      "##ant\n": 7318,
      "##orse": 7319,
      "  '": 7320,
      "##enti": 7321,
      "##es' ": 7322,
      "##I can": 7323,
      "##of me ": 7324,
      "##to me.\n": 7325,
      "##religi": 7326,
      "##rib": 7327,
      "##; a ": 7328,
      "##be my ": 7329,
      "##cel": 7330,
      "##comes.\n": 7331,
      "##ARD ": 7332,
      "##die, ": 7333,
      "##face": 7334,
      "##le of ": 7335,
      "##. Which ": 7336,
      "##spare ": 7337,
      "##with some ": 7338,
      "##elp": 7339,
      "##kness ": 7340,
      "##. Away, ": 7341,
      "##wag": 7342,
      "##ly and ": 7343,
      "##? D": 7344,
      "##we were ": 7345,
      "    The King ": 7346,
      "##ess of ": 7347,
      "##fiery ": 7348,
      "  MONT": 7349,
      "##p to ": 7350,
      "  An": 7351,
      "##sons ": 7352,
      "##. Then, ": 7353,
      "##place,\n": 7354,
      "##a ma": 7355,
      "##make the ": 7356,
      "##upon\n": 7357,
      "##.                    ": 7358,
      "##paid ": 7359,
      "##offence ": 7360,
      "##commit": 7361,
      "##afra": 7362,
      "##. Pardon": 7363,
      "##juri": 7364,
      "##Anti": 7365,
      "##tell me, ": 7366,
      "##speak, ": 7367,
      "  FIRST MURDERER": 7368,
      "##purpos": 7369,
      "##IONE": 7370,
      "##of the\n": 7371,
      "##then?\n": 7372,
      "##trun": 7373,
      "##tongue\n": 7374,
      "##RAT": 7375,
      "##besid": 7376,
      "##fool, ": 7377,
      "    How now, ": 7378,
      "## that, ": 7379,
      "##heart's ": 7380,
      "##. Thou hast ": 7381,
      "##few ": 7382,
      "##daughter.\n": 7383,
      "##puts ": 7384,
      "##deserve ": 7385,
      "  ALONS": 7386,
      "##story ": 7387,
      "##birth": 7388,
      "##Capu": 7389,
      "##deadly ": 7390,
      "##damned ": 7391,
      "  TRINCULO": 7392,
      "##fetch ": 7393,
      "##enough to ": 7394,
      "##Shallow": 7395,
      "##jealous": 7396,
      "##ARL OF ": 7397,
      "##knowledge ": 7398,
      "##Demetri": 7399,
      "##Horati": 7400,
      "##scorn ": 7401,
      "London. The ": 7402,
      "##realm": 7403,
      "##summer ": 7404,
      "##native ": 7405,
      "##condemn": 7406,
      "##prevail": 7407,
      "##ERDINAND": 7408,
      "##pronoun": 7409,
      "##COLM": 7410,
      "##ax": 7411,
      "##SCA": 7412,
      "##touch ": 7413,
      "##wounds ": 7414,
      "##IG": 7415,
      "##bought ": 7416,
      "##CLIFF": 7417,
      "##Bianca": 7418,
      "##!-": 7419,
      "##'s.\n": 7420,
      "##Em": 7421,
      "##Have ": 7422,
      "##Por": 7423,
      "##thy\n": 7424,
      "    it ": 7425,
      "    would ": 7426,
      "##in't": 7427,
      "##in me ": 7428,
      "##inform": 7429,
      "##anio": 7430,
      "##ora": 7431,
      "##on;\n": 7432,
      "##is as ": 7433,
      "##is but ": 7434,
      "##ests ": 7435,
      "##and thy ": 7436,
      "##to take ": 7437,
      "##ing?\n": 7438,
      "## mi": 7439,
      "##forgive ": 7440,
      "##forbear": 7441,
      "##like, ": 7442,
      "##ride ": 7443,
      "##; or ": 7444,
      "##not this ": 7445,
      "##my father ": 7446,
      "##eel ": 7447,
      "##in Fran": 7448,
      "##beg ": 7449,
      "##it in ": 7450,
      "##lack, ": 7451,
      "##commo": 7452,
      "##fac'd ": 7453,
      "##ORLE": 7454,
      "##whether ": 7455,
      "##there?\n": 7456,
      "##are they ": 7457,
      "##THER": 7458,
      "    Sir ": 7459,
      "##ourselv": 7460,
      "##neph": 7461,
      "    Though": 7462,
      "    Therefore, ": 7463,
      "##all thy ": 7464,
      "##morn": 7465,
      "  BIONDELLO": 7466,
      "##. Speak ": 7467,
      "    I am": 7468,
      "    That you ": 7469,
      "##ent and ": 7470,
      "##rank": 7471,
      "##us; ": 7472,
      "##ho! ": 7473,
      "##him;\n": 7474,
      "##      Exeunt ": 7475,
      "##advan": 7476,
      "##she will ": 7477,
      "##warm": 7478,
      "##wars ": 7479,
      "    But that ": 7480,
      "##. Thou": 7481,
      "##let her ": 7482,
      "    Yet, ": 7483,
      "##did I ": 7484,
      "##did you ": 7485,
      "    Never ": 7486,
      "##indeed.\n": 7487,
      "## and the ": 7488,
      "##ence?\n": 7489,
      "##king\n": 7490,
      "##brings ": 7491,
      "##commend": 7492,
      "##womb": 7493,
      "  CASCA": 7494,
      "##fear,\n": 7495,
      "##light, ": 7496,
      "##lord?\n": 7497,
      "##good.\n": 7498,
      "##live, ": 7499,
      "##to-morrow ": 7500,
      "  DUKE OF ": 7501,
      "##ure, ": 7502,
      "##confess": 7503,
      "##gone, ": 7504,
      "    Ri": 7505,
      "##call me ": 7506,
      "##struck": 7507,
      "##Caesar, ": 7508,
      "##cried ": 7509,
      "##You are ": 7510,
      "##state,\n": 7511,
      "##dream ": 7512,
      "##York, ": 7513,
      "##o'er the ": 7514,
      "##TEND": 7515,
      "##valu": 7516,
      "##told me ": 7517,
      "##knave": 7518,
      "##cause": 7519,
      "##. You must ": 7520,
      "##greatness ": 7521,
      "##I think, ": 7522,
      "##troth, ": 7523,
      "##counsel ": 7524,
      "##didst thou ": 7525,
      "##istol": 7526,
      "  MALCOLM": 7527,
      "##all things ": 7528,
      "##excuse ": 7529,
      "    Makes ": 7530,
      "    Against the ": 7531,
      "##whores": 7532,
      "  CONSTABLE": 7533,
      "##challen": 7534,
      "##negle": 7535,
      "##desperate ": 7536,
      "##wholes": 7537,
      "##William Shakespeare\n": 7538,
      "  ALONSO": 7539,
      " Exit\n": 7540,
      "##iol": 7541,
      "##rar": 7542,
      "##cli": 7543,
      "##cup": 7544,
      "##nine ": 7545,
      "##nought ": 7546,
      "##lown": 7547,
      "##were, ": 7548,
      "##; thou ": 7549,
      "##; here ": 7550,
      "##GUN": 7551,
      "##phi": 7552,
      "##IUS and ": 7553,
      "##fron": 7554,
      "##bare ": 7555,
      "##bag": 7556,
      "##bade ": 7557,
      "##Bass": 7558,
      "##vent ": 7559,
      "##MISTRESS ": 7560,
      "##Whi": 7561,
      "##PUC": 7562,
      "##ths ": 7563,
      "    Qu": 7564,
      "## thri": 7565,
      "##is that ": 7566,
      "##es; and ": 7567,
      "##easi": 7568,
      "##to thee ": 7569,
      "##to speak ": 7570,
      "##wither": 7571,
      "##for me": 7572,
      "##forward ": 7573,
      "##recor": 7574,
      "##; which ": 7575,
      "##itu": 7576,
      "##below": 7577,
      "##sign ": 7578,
      "##'d a ": 7579,
      "##room ": 7580,
      "##tide ": 7581,
      "##, and his ": 7582,
      "    And I will ": 7583,
      "##ch of ": 7584,
      "##his own ": 7585,
      "##s, my ": 7586,
      "##me a ": 7587,
      "##sauc": 7588,
      "##spring": 7589,
      "##rul": 7590,
      "  CHAM": 7591,
      "  CLAUDIO": 7592,
      "##wax": 7593,
      "##so long": 7594,
      "  Poin": 7595,
      "##by that ": 7596,
      "     T": 7597,
      "##alli": 7598,
      "##posed ": 7599,
      "##blow ": 7600,
      "##man?\n": 7601,
      "##him?\n": 7602,
      "##sirrah": 7603,
      "##etru": 7604,
      "##ward, ": 7605,
      "##abhor": 7606,
      "  As ": 7607,
      "##head, ": 7608,
      "##dish": 7609,
      "##esteem": 7610,
      "##der the ": 7611,
      "##a mer": 7612,
      "##pride ": 7613,
      "##serp": 7614,
      "##broken ": 7615,
      "##say you ": 7616,
      "##foolish": 7617,
      "##PHIN": 7618,
      "##will,\n": 7619,
      "##peace.\n": 7620,
      "##aff ": 7621,
      "##too,\n": 7622,
      "##chamber ": 7623,
      "##mine, ": 7624,
      "##it is not ": 7625,
      "##tongue,\n": 7626,
      "##matter, ": 7627,
      "##house, ": 7628,
      "##pedi": 7629,
      "  NESTOR": 7630,
      "##cloth": 7631,
      "##name": 7632,
      "##ATTEND": 7633,
      "##words.\n": 7634,
      "##heavens ": 7635,
      "##plan": 7636,
      "##You have ": 7637,
      "##colour ": 7638,
      "##My lord, ": 7639,
      "##nothing.\n": 7640,
      "##purpose": 7641,
      "##nor the ": 7642,
      "##gods, ": 7643,
      "##loss ": 7644,
      "##of him.\n": 7645,
      "##field.\n": 7646,
      "##instant ": 7647,
      "##manner ": 7648,
      "##flesh ": 7649,
      "##feel ": 7650,
      "##AUPHIN": 7651,
      "  QUINCE": 7652,
      "##occasion ": 7653,
      "##sembl": 7654,
      "##KATHARINE": 7655,
      "##Pompey": 7656,
      "##INCHESTER": 7657,
      "  MARCIUS. ": 7658,
      "Another part of the ": 7659,
      "  PATROC": 7660,
      "  CHAMBERLAIN": 7661,
      "by ": 7662,
      "##rare ": 7663,
      "##dwell": 7664,
      "##cil": 7665,
      "##.      ": 7666,
      "##.-\n": 7667,
      "##twa": 7668,
      "##tres": 7669,
      "##yea": 7670,
      "##year ": 7671,
      "##y,  \n": 7672,
      "##wine ": 7673,
      "##what\n": 7674,
      "##Alexand": 7675,
      "##fond ": 7676,
      "##bend ": 7677,
      "##bright ": 7678,
      "##Bar": 7679,
      "##Fri": 7680,
      "##Hector ": 7681,
      "    he ": 7682,
      "    him ": 7683,
      "##er;\n": 7684,
      "##in-": 7685,
      "##increa": 7686,
      "##ords, ": 7687,
      "  I ": 7688,
      "##hab": 7689,
      "##eag": 7690,
      "##ing that ": 7691,
      "##chmon": 7692,
      "##for th": 7693,
      "##ref": 7694,
      "##lion": 7695,
      "##uner": 7696,
      "##beyond ": 7697,
      "##labour ": 7698,
      "##be it ": 7699,
      "##rose ": 7700,
      "##, and to ": 7701,
      "    And never ": 7702,
      "##did, ": 7703,
      "##did.\n": 7704,
      "##shame, ": 7705,
      "##shadow ": 7706,
      "##say,\n": 7707,
      "##. Welcome, ": 7708,
      "##within the ": 7709,
      "##taught ": 7710,
      "    Both ": 7711,
      "##for you": 7712,
      "##consul": 7713,
      "##. I do not ": 7714,
      "##medi": 7715,
      "##? M": 7716,
      "##to.\n": 7717,
      "##to't": 7718,
      "##poll": 7719,
      "##morel": 7720,
      "                   Enter ": 7721,
      "  SUR": 7722,
      "##que ": 7723,
      "##quit ": 7724,
      "##all your ": 7725,
      "##herself": 7726,
      "##blu": 7727,
      "##blest ": 7728,
      "##teen ": 7729,
      "##hear the ": 7730,
      "##what we ": 7731,
      "##us'd ": 7732,
      "##fill ": 7733,
      "##add": 7734,
      "##. Never ": 7735,
      "##ward.\n": 7736,
      "##; and I ": 7737,
      "##know, ": 7738,
      "##p and ": 7739,
      "##heav": 7740,
      "##ement ": 7741,
      "##ump": 7742,
      "##were not ": 7743,
      "##did he ": 7744,
      "##had the ": 7745,
      "##Than": 7746,
      "##coz": 7747,
      "##cock": 7748,
      "##if my ": 7749,
      "##from a ": 7750,
      "  Wor": 7751,
      "##I am sure ": 7752,
      "##vey ": 7753,
      "##women": 7754,
      "##. Please ": 7755,
      "##charac": 7756,
      "##swore ": 7757,
      "##bear the ": 7758,
      "##dull": 7759,
      "##time of ": 7760,
      "##wife": 7761,
      "##other's ": 7762,
      "##men,\n": 7763,
      "##care": 7764,
      "##monster": 7765,
      "##ment, ": 7766,
      "##sea-": 7767,
      "##. He hath ": 7768,
      "##live,\n": 7769,
      "##spici": 7770,
      "##then the ": 7771,
      "##house,\n": 7772,
      "##daughter, ": 7773,
      "##. [aside": 7774,
      "##Rome\n": 7775,
      "## mean ": 7776,
      "##weak": 7777,
      "##name?\n": 7778,
      "##slave ": 7779,
      "##master.\n": 7780,
      "##follows ": 7781,
      "##men of ": 7782,
      "##. This is the ": 7783,
      "##hope, ": 7784,
      "##. If I ": 7785,
      "  Osw": 7786,
      "##into a ": 7787,
      "##princes ": 7788,
      "##fall'n ": 7789,
      "##a thing ": 7790,
      "##craf": 7791,
      "##woe ": 7792,
      "  ALCIBIAD": 7793,
      "##presently": 7794,
      "##myself\n": 7795,
      "##Cassio ": 7796,
      "##Romeo ": 7797,
      "##. Do you ": 7798,
      "##. Is it ": 7799,
      "##Hasting": 7800,
      "##near the ": 7801,
      "  OLIVER": 7802,
      "  THIRD CITIZEN": 7803,
      "##troth": 7804,
      "##glorious ": 7805,
      "##till the ": 7806,
      "##I know not ": 7807,
      "##signi": 7808,
      "##wealth ": 7809,
      "##withal.\n": 7810,
      "##receiv'd ": 7811,
      "##direct": 7812,
      "##OWBRA": 7813,
      "##loyal": 7814,
      "##knock": 7815,
      "  AUMERLE": 7816,
      "##canst not ": 7817,
      "##Emperor": 7818,
      "  LORD ": 7819,
      "##yonder ": 7820,
      "##. Faith, ": 7821,
      "##Scot": 7822,
      "##learn ": 7823,
      "##Cressi": 7824,
      "##iolan": 7825,
      "##etruchi": 7826,
      "##ATTENDANT": 7827,
      "  PATROCLUS. ": 7828,
      "by William Shakespeare\n": 7829,
      "  ALCIBIADES. ": 7830,
      "##eff": 7831,
      "##io ": 7832,
      "##ds\n": 7833,
      "##as, ": 7834,
      "##She ": 7835,
      "##Sat": 7836,
      "##t'": 7837,
      "##t  \n": 7838,
      "##yester": 7839,
      "##wound ": 7840,
      "##sou": 7841,
      "##Go, ": 7842,
      "##fli": 7843,
      "##fla": 7844,
      "##fought ": 7845,
      "##Kate, ": 7846,
      "##bree": 7847,
      "##Banqu": 7848,
      "##--": 7849,
      "##Flor": 7850,
      "##Where ": 7851,
      "##London": 7852,
      "##'st, ": 7853,
      "##Planta": 7854,
      "##2\n": 7855,
      "##2.\n": 7856,
      "    they ": 7857,
      "##oured ": 7858,
      "##er; ": 7859,
      "##anti": 7860,
      "##ance,\n": 7861,
      "  EDWARD": 7862,
      "##stud": 7863,
      "##staff ": 7864,
      "##for that": 7865,
      "##a litt": 7866,
      "##recover": 7867,
      "##like\n": 7868,
      "##earth.\n": 7869,
      "##my noble ": 7870,
      "##amis": 7871,
      "##in an ": 7872,
      "##al\n": 7873,
      "    And all the ": 7874,
      "##ANLE": 7875,
      "##INTER": 7876,
      "##END\n": 7877,
      "##compar": 7878,
      "##did": 7879,
      "##there.\n": 7880,
      "##irst ": 7881,
      "##with all ": 7882,
      "##taste ": 7883,
      "##and,\n": 7884,
      "##wast": 7885,
      "##confi": 7886,
      "##confu": 7887,
      "##so many ": 7888,
      "    Some": 7889,
      "  PER": 7890,
      "##rescu": 7891,
      "  Bora": 7892,
      "##from their ": 7893,
      "##tex": 7894,
      "##. So, ": 7895,
      "    I never ": 7896,
      "##appoin": 7897,
      "##would you ": 7898,
      "##perfor": 7899,
      "##trust": 7900,
      "##ICA": 7901,
      "##proper": 7902,
      "##. May ": 7903,
      "##. Make ": 7904,
      "##war,\n": 7905,
      "##head\n": 7906,
      "##excu": 7907,
      "##a mo": 7908,
      "##opat": 7909,
      "##oppres": 7910,
      "##scur": 7911,
      "    Do": 7912,
      "##. Fare you ": 7913,
      "##.                     ": 7914,
      "##flam": 7915,
      "##mark ": 7916,
      "##breast": 7917,
      "##thou the ": 7918,
      "##bull": 7919,
      "##father\n": 7920,
      "##friends": 7921,
      "##cler": 7922,
      "##ble,\n": 7923,
      "##ation,\n": 7924,
      "##cus, ": 7925,
      "##ty of ": 7926,
      "##fear\n": 7927,
      "##right.\n": 7928,
      "    This is the ": 7929,
      "##BERON": 7930,
      "##son of ": 7931,
      "##curr": 7932,
      "##ceremon": 7933,
      "##ESSICA": 7934,
      "  NYM": 7935,
      "  NERISSA": 7936,
      "##ity of ": 7937,
      "##power\n": 7938,
      "##pass": 7939,
      "##against my ": 7940,
      "##down,\n": 7941,
      "##this.\n": 7942,
      "##tell the ": 7943,
      "##gone,\n": 7944,
      "##with me, ": 7945,
      "##greet ": 7946,
      "##words, ": 7947,
      "##spoil": 7948,
      "##crave ": 7949,
      "##state\n": 7950,
      "##promis": 7951,
      "##naked ": 7952,
      "##danger ": 7953,
      "##you make ": 7954,
      "##camp": 7955,
      "##nature\n": 7956,
      "##knave, ": 7957,
      "##mouth ": 7958,
      "##enough.\n": 7959,
      "##dare not ": 7960,
      "##Richard, ": 7961,
      "##doth the ": 7962,
      "##behin": 7963,
      "##strength ": 7964,
      "##stock": 7965,
      "##an hour ": 7966,
      "##shape ": 7967,
      "##small": 7968,
      "##!                                ": 7969,
      "##Alban": 7970,
      "##natural": 7971,
      "##sooth, ": 7972,
      "##third ": 7973,
      "##sooner ": 7974,
      "  PUCK": 7975,
      "##physic": 7976,
      "THE END\n": 7977,
      "##street\n": 7978,
      "##i' faith": 7979,
      "##Aufidi": 7980,
      "##CLOWN": 7981,
      "##. [aside] ": 7982,
      "##Tur": 7983,
      "##ize ": 7984,
      "##ry,\n": 7985,
      "##m, ": 7986,
      "##dy": 7987,
      "##gown": 7988,
      "##yr": 7989,
      "##y? ": 7990,
      "##sanc": 7991,
      "##Guil": 7992,
      "##,'\n": 7993,
      "##fled ": 7994,
      "##Nat": 7995,
      "##bad": 7996,
      "##Don ": 7997,
      "##FALSTAFF": 7998,
      "##vul": 7999,
      "##Mess": 8000,
      "##Edg": 8001,
      "##Emili": 8002,
      "##VER": 8003,
      "##VEN": 8004,
      "##Pe": 8005,
      "    me ": 8006,
      "    good ": 8007,
      "##d to ": 8008,
      "##in heaven": 8009,
      "##ant,\n": 8010,
      "##. Ex": 8011,
      "  1": 8012,
      "##art\n": 8013,
      "##is too ": 8014,
      "##and her ": 8015,
      "##I ha": 8016,
      "##of hear": 8017,
      "##to heaven": 8018,
      "##step": 8019,
      "##nobi": 8020,
      "##search": 8021,
      "##of us ": 8022,
      "##of such ": 8023,
      "##he be ": 8024,
      "##; what ": 8025,
      "##leopat": 8026,
      "##ray, ": 8027,
      "##eeper": 8028,
      "##in one ": 8029,
      "##'d at ": 8030,
      "##may\n": 8031,
      "##til ": 8032,
      "##their": 8033,
      "    And here ": 8034,
      "##ANTI": 8035,
      "##have we ": 8036,
      "##that we ": 8037,
      "##on to ": 8038,
      "##or a ": 8039,
      "##deca": 8040,
      "##with an ": 8041,
      "##but not ": 8042,
      "##terr": 8043,
      "##and-": 8044,
      "##! F": 8045,
      "    Sir": 8046,
      "    So, ": 8047,
      "##. Hear": 8048,
      "##blin": 8049,
      "##hear me ": 8050,
      "##leagu": 8051,
      "##TIUS. ": 8052,
      "    Myself ": 8053,
      "##him h": 8054,
      "##advis": 8055,
      "##love-": 8056,
      "##proof ": 8057,
      "##prote": 8058,
      "##propor": 8059,
      "##heads ": 8060,
      "##disgu": 8061,
      "##veni": 8062,
      "##, I would ": 8063,
      "##ang ": 8064,
      "##ge of ": 8065,
      "##ster\n": 8066,
      "##serv'd ": 8067,
      "##upon thy ": 8068,
      "##.                      ": 8069,
      "  WESTMORELAND": 8070,
      "    Put ": 8071,
      "##beam": 8072,
      "##. Pro": 8073,
      "##tribut": 8074,
      "##tribun": 8075,
      "##sword.\n": 8076,
      "##. Dis": 8077,
      "##death;\n": 8078,
      "##not;\n": 8079,
      "##tell him ": 8080,
      "##void ": 8081,
      "##lady,\n": 8082,
      "    For the ": 8083,
      "##LAW": 8084,
      "##when\n": 8085,
      "##it is a ": 8086,
      "##means to ": 8087,
      "##down, ": 8088,
      "##to-day ": 8089,
      "##fairly ": 8090,
      "##fairest ": 8091,
      "##; there ": 8092,
      "##which the ": 8093,
      "##sion.\n": 8094,
      "  OCTA": 8095,
      "  THURIO": 8096,
      "##woman.\n": 8097,
      "##greet": 8098,
      "##. Good morrow, ": 8099,
      "##Sir John ": 8100,
      "    Let us ": 8101,
      "##Rober": 8102,
      "##ence, and ": 8103,
      "##a man\n": 8104,
      "##still.\n": 8105,
      "##Lucenti": 8106,
      "##vessel": 8107,
      "##together.\n": 8108,
      "##. Even ": 8109,
      "##Arth": 8110,
      "##my good lord": 8111,
      "##. Here comes ": 8112,
      "##DUKE": 8113,
      "##OWER": 8114,
      "##!                        ": 8115,
      "    Stand ": 8116,
      "    Too ": 8117,
      "##. Truly, ": 8118,
      "##smile ": 8119,
      "  HERMIONE": 8120,
      "##violent ": 8121,
      "##jealous ": 8122,
      "  CONSTANCE": 8123,
      "##Rosalin": 8124,
      "##Brutus, ": 8125,
      "##. Shall I ": 8126,
      "##anks, ": 8127,
      "##remembrance ": 8128,
      "##Westmorel": 8129,
      "##Burgund": 8130,
      "##Empres": 8131,
      "  Poins": 8132,
      "##confid": 8133,
      "##hell ": 8134,
      "##eg": 8135,
      "##et\n": 8136,
      "##eous ": 8137,
      "##e; and ": 8138,
      "##ist ": 8139,
      "##mal": 8140,
      "##cure ": 8141,
      "##yell": 8142,
      "##oo ": 8143,
      "##GILIA": 8144,
      "##AGEN": 8145,
      "##pil": 8146,
      "##put": 8147,
      "##IOR": 8148,
      "##fter": 8149,
      "##bind ": 8150,
      "##Cas": 8151,
      "##v'd,\n": 8152,
      "##LANT": 8153,
      "##'r ": 8154,
      "##3.\n": 8155,
      "    as ": 8156,
      "##s her ": 8157,
      "##into my ": 8158,
      "##injur": 8159,
      "  If ": 8160,
      "  In ": 8161,
      "##art, ": 8162,
      "##on, and ": 8163,
      "##on her": 8164,
      "##es]\n": 8165,
      "##youth,\n": 8166,
      "## my\n": 8167,
      "##the world ": 8168,
      "##seest ": 8169,
      "##for thee": 8170,
      "##forgot ": 8171,
      "##a par": 8172,
      "##lig": 8173,
      "##livi": 8174,
      "    After ": 8175,
      "##hill": 8176,
      "##ated ": 8177,
      "##ear.\n": 8178,
      "##; but, ": 8179,
      "##les and ": 8180,
      "##you would ": 8181,
      "##you can ": 8182,
      "##ing on ": 8183,
      "##ing of the ": 8184,
      "##unkind": 8185,
      "##behol": 8186,
      "##alo": 8187,
      "##alter": 8188,
      "##sive ": 8189,
      "##room": 8190,
      "##have no ": 8191,
      "##that I have ": 8192,
      "##s, as ": 8193,
      "##or to ": 8194,
      "##dew": 8195,
      "##depar": 8196,
      "##sacri": 8197,
      "##. Where's ": 8198,
      "##E SEN": 8199,
      "##old.\n": 8200,
      "  CARDINAL": 8201,
      "##up my ": 8202,
      "##do?\n": 8203,
      "    Save ": 8204,
      "    Speak ": 8205,
      "##by and ": 8206,
      "##by some ": 8207,
      "##meant ": 8208,
      "##methink": 8209,
      "##moon ": 8210,
      "##modest": 8211,
      "##hear\n": 8212,
      "##heart is ": 8213,
      "##. I think": 8214,
      "##whip": 8215,
      "    Might ": 8216,
      "##was my ": 8217,
      "##so;\n": 8218,
      "##apti": 8219,
      "##fied ": 8220,
      "  MENAS. ": 8221,
      "##party ": 8222,
      "##true,\n": 8223,
      "##ts the ": 8224,
      "##know'st ": 8225,
      "##able": 8226,
      "##accoun": 8227,
      "##were the ": 8228,
      "##were a ": 8229,
      "    Yea, ": 8230,
      "##stern ": 8231,
      "##tted ": 8232,
      "##ed, and ": 8233,
      "##'dst ": 8234,
      "##'d  \n": 8235,
      "##take her ": 8236,
      "##EDFORD": 8237,
      "##betwixt ": 8238,
      "##march ": 8239,
      "##buried ": 8240,
      "##firm ": 8241,
      "##to be a ": 8242,
      "##ble-": 8243,
      "##CENE": 8244,
      "##join ": 8245,
      "##fearful": 8246,
      "##money": 8247,
      "##right,\n": 8248,
      "##gentlemen, ": 8249,
      "##of those ": 8250,
      "##King and ": 8251,
      "##good,\n": 8252,
      "##made a ": 8253,
      "##news, ": 8254,
      "##luck": 8255,
      "##Mark Anton": 8256,
      "##corre": 8257,
      "##REIG": 8258,
      "##besee": 8259,
      "##to-night.\n": 8260,
      "##close": 8261,
      "##quiet": 8262,
      "##strain": 8263,
      "##welcome.\n": 8264,
      "##standing ": 8265,
      "##Sir T": 8266,
      "##sometimes ": 8267,
      "##dark": 8268,
      "##oath ": 8269,
      "##dread ": 8270,
      "##in thine ": 8271,
      "##lips ": 8272,
      "##chide ": 8273,
      "##audi": 8274,
      "##titu": 8275,
      "##breed ": 8276,
      "                Enter ": 8277,
      "##an hour": 8278,
      "##paper ": 8279,
      "##poison ": 8280,
      "##Protector": 8281,
      "##Greek": 8282,
      "##your lordship": 8283,
      "##Within]  ": 8284,
      "##particular ": 8285,
      "##hemi": 8286,
      "##'ll\n": 8287,
      "##OFFICER": 8288,
      "##. Therefore, ": 8289,
      "##NIER": 8290,
      "##AGENET": 8291,
      "##LANTAGENET": 8292,
      "##E SENIOR": 8293,
      "##REIGNIER": 8294,
      "##either": 8295,
      "##ike ": 8296,
      "##dance ": 8297,
      "##uber": 8298,
      "##SERV": 8299,
      "##ty\n": 8300,
      "##tend ": 8301,
      "##odd": 8302,
      "##wink": 8303,
      "##slow": 8304,
      "##I,\n": 8305,
      "##food ": 8306,
      "##Kather": 8307,
      "##Nap": 8308,
      "##YOR": 8309,
      "##OC": 8310,
      "##OOTH": 8311,
      "##ves.\n": 8312,
      "##WAL": 8313,
      "##Lysand": 8314,
      "##VIN": 8315,
      "##VIC": 8316,
      "##Jup": 8317,
      "##Pis": 8318,
      "##\" ": 8319,
      "    shall ": 8320,
      "##inclin": 8321,
      "##anon": 8322,
      "##any\n": 8323,
      "##ore": 8324,
      "##end, ": 8325,
      "##is no ": 8326,
      "##to give ": 8327,
      "##stretch": 8328,
      "## myself ": 8329,
      "##the F": 8330,
      "##ch\n": 8331,
      "## he's ": 8332,
      "##sees ": 8333,
      "##reti": 8334,
      "##regar": 8335,
      "##liqu": 8336,
      "##ood": 8337,
      "##it!\n": 8338,
      "##you should ": 8339,
      "##in it ": 8340,
      "##as your ": 8341,
      "##behavi": 8342,
      "##alar": 8343,
      "##'d him ": 8344,
      "##be thy ": 8345,
      "    Well, ": 8346,
      "##mask": 8347,
      "    And he ": 8348,
      "##ANQU": 8349,
      "##s, to ": 8350,
      "##! L": 8351,
      "##! and ": 8352,
      "##! The ": 8353,
      "  Cor": 8354,
      "##knight ": 8355,
      "##ight, ": 8356,
      "##conveni": 8357,
      "##dog ": 8358,
      "##rest\n": 8359,
      "##rest.\n": 8360,
      "##me!\n": 8361,
      "##? Why ": 8362,
      "## that is ": 8363,
      "## that you ": 8364,
      "##quoth": 8365,
      "##. Har": 8366,
      "##. Her ": 8367,
      "  BANQU": 8368,
      "##both.\n": 8369,
      "    I must ": 8370,
      "    I know ": 8371,
      "    That he ": 8372,
      "##leave\n": 8373,
      "  For": 8374,
      "##ady, ": 8375,
      "##deal ": 8376,
      "##know my ": 8377,
      "##abus": 8378,
      "##ILIUS. ": 8379,
      "##make you ": 8380,
      "    Nor": 8381,
      "    Now": 8382,
      "##- a ": 8383,
      "##pray, ": 8384,
      "##pract": 8385,
      "##. Fie, ": 8386,
      "##foot": 8387,
      "    Whiles ": 8388,
      "##offend": 8389,
      "##ve-": 8390,
      "##yourselv": 8391,
      "##'tis not ": 8392,
      "##too lat": 8393,
      "##UTLAW": 8394,
      "##charge": 8395,
      "##sword, ": 8396,
      "##beard ": 8397,
      "##ations ": 8398,
      "##other.\n": 8399,
      "##liege, ": 8400,
      "##mind.\n": 8401,
      "##light,\n": 8402,
      "##soul,\n": 8403,
      "## them, ": 8404,
      "##then.\n": 8405,
      "##III.\n": 8406,
      "##how to ": 8407,
      "##how now, ": 8408,
      "##arewell ": 8409,
      "##lust": 8410,
      "##answer.\n": 8411,
      "##upon our ": 8412,
      "##coron": 8413,
      "##cloa": 8414,
      "##name,\n": 8415,
      "##denied ": 8416,
      "##a husb": 8417,
      "##prince ": 8418,
      "##that I may ": 8419,
      "##wondr": 8420,
      "##bury ": 8421,
      "##intend ": 8422,
      "##crown,\n": 8423,
      "##dares ": 8424,
      "##wherein ": 8425,
      "##cries ": 8426,
      "##i' th'": 8427,
      "##Richmon": 8428,
      "    If he ": 8429,
      "##revenge": 8430,
      "  LEPID": 8431,
      "##you think": 8432,
      "##How now, ": 8433,
      "##bridg": 8434,
      "##enterpri": 8435,
      "##Lavini": 8436,
      "##coward ": 8437,
      "##before.\n": 8438,
      "##DOVIC": 8439,
      "##swallow": 8440,
      "##Coriolan": 8441,
      "  KATHERINE": 8442,
      "##fight.\n": 8443,
      "##. Farewell, ": 8444,
      "##fatal ": 8445,
      "##innocent ": 8446,
      "##secret": 8447,
      "##. Prithee, ": 8448,
      "##throat": 8449,
      "##SAYER": 8450,
      "##conduct ": 8451,
      "##vengeance ": 8452,
      "  LODOVIC": 8453,
      "##Poloni": 8454,
      "##Ajax": 8455,
      "##journe": 8456,
      "##intellig": 8457,
      "##RATCLIFF": 8458,
      "##OOTHSAYER": 8459,
      "##VINIA": 8460,
      "##Jupit": 8461,
      "Rome": 8462,
      "##This": 8463,
      "##efore ": 8464,
      "##d'": 8465,
      "##cand": 8466,
      "##a?\n": 8467,
      "##le, and ": 8468,
      "##gap": 8469,
      "##um ": 8470,
      "##Se": 8471,
      "##Ste": 8472,
      "##test": 8473,
      "##teach ": 8474,
      "##sore ": 8475,
      "##s: ": 8476,
      "##Ital": 8477,
      "##Cat": 8478,
      "##Offi": 8479,
      "##What's ": 8480,
      "##Hal": 8481,
      "##Jack ": 8482,
      "##Pistol": 8483,
      "##thu": 8484,
      "##thre": 8485,
      "##thrust ": 8486,
[...]
